<unk>	0
<s>	0
</s>	0
foo	0
bar	0
▁“	-0
..	-1
萧炎	-2
。”	-3
了一	-4
克莱	-5
克莱恩	-6
:“	-7
也是	-8
便是	-9
没有	-10
什么	-11
....	-12
自己	-13
?”	-14
一个	-15
他们	-16
......	-17
目光	-18
...	-19
!”	-20
有些	-21
都是	-22
▁这	-23
知道	-24
不过	-25
却是	-26
之中	-27
到了	-28
不是	-29
望着	-30
之上	-31
现在	-32
这个	-33
能够	-34
有着	-35
▁他	-36
时间	-37
旋即	-38
事情	-39
先生	-40
已经	-41
起来	-42
令狐	-43
然后	-44
一道	-45
我们	-46
==	-47
===	-48
笑道	-49
身体	-50
这种	-51
的那	-52
的一	-53
而出	-54
可以	-55
强者	-56
他的	-57
缓缓	-58
令狐冲	-59
因为	-60
心中	-61
微微	-62
的人	-63
对着	-64
出来	-65
实力	-66
就是	-67
点头	-68
大的	-69
突然	-70
这里	-71
最后	-72
火焰	-73
的话	-74
时候	-75
这些	-76
不会	-77
似乎	-78
直接	-79
,“	-80
了下	-81
▁克莱恩	-82
出现	-83
虽然	-84
这一	-85
之后	-86
一些	-87
只是	-88
还是	-89
可能	-90
出了	-91
声音	-92
也不	-93
能量	-94
说道	-95
”,	-96
若是	-97
长老	-98
斗气	-99
家伙	-100
进入	-101
发现	-102
般的	-103
...”	-104
▁在	-105
上的	-106
顿时	-107
怎么	-108
非凡	-109
看见	-110
体内	-111
口气	-112
然是	-113
应该	-114
序列	-115
问题	-116
人的	-117
如果	-118
▁萧炎	-119
见到	-120
而且	-121
灵魂	-122
所以	-123
需要	-124
那些	-125
脸庞	-126
的道	-127
来的	-128
感觉	-129
如此	-130
力量	-131
药老	-132
手掌	-133
21	-134
你们	-135
空间	-136
对方	-137
世界	-138
中的	-139
一般	-140
对于	-141
色的	-142
第一	-143
是一	-144
变得	-145
了起来	-146
这么	-147
东西	-148
声道	-149
面前	-150
这般	-151
问道	-152
这样	-153
点了	-154
不少	-155
随着	-156
脸色	-157
奥黛	-158
奥黛丽	-159
如今	-160
之前	-161
听得	-162
▁===	-163
自己的	-164
愚者	-165
一下	-166
忽然	-167
那个	-168
的地	-169
眼睛	-170
终于	-171
竟然	-172
点了点头	-173
开始	-174
身影	-175
这是	-176
恐怕	-177
周围	-178
......”	-179
并不	-180
一点	-181
极为	-182
让得	-183
无法	-184
那里	-185
逐渐	-186
清楚	-187
令得	-188
犹如	-189
迅速	-190
的事情	-191
炼药	-192
方才	-193
在了	-194
所有	-195
只能	-196
我的	-197
萧炎的	-198
等人	-199
天空	-200
不住	-201
一抹	-202
还有	-203
摇头	-204
望着那	-205
在这	-206
身形	-207
想到	-208
神秘	-209
呵呵	-210
了一声	-211
淡淡	-212
存在	-213
难以	-214
想要	-215
薰儿	-216
离开	-217
能力	-218
几乎	-219
恐怖	-220
那位	-221
不知	-222
此刻	-223
因此	-224
小姐	-225
了一下	-226
真正	-227
那么	-228
黑色	-229
一股	-230
一次	-231
手中	-232
情况	-233
甚至	-234
成为	-235
之内	-236
家族	-237
不能	-238
真是	-239
你的	-240
略微	-241
身上	-242
其中	-243
这位	-244
不断	-245
修炼	-246
同时	-247
瞬间	-248
异火	-249
倒是	-250
面的	-251
丹药	-252
了几	-253
医仙	-254
小医仙	-255
消失	-256
当然	-257
以及	-258
一声	-259
再度	-260
一位	-261
状态	-262
过去	-263
并未	-264
眼中	-265
轻轻	-266
两人	-267
完全	-268
一笑	-269
的是	-270
占卜	-271
闻言	-272
许多	-273
出现在	-274
不知道	-275
准备	-276
的大	-277
可是	-278
然而	-279
了一个	-280
▁而	-281
炼药师	-282
老者	-283
天使	-284
或许	-285
▁那	-286
脑袋	-287
过来	-288
一阵	-289
狠狠	-290
的萧炎	-291
刚才	-292
彻底	-293
了一眼	-294
了一口气	-295
途径	-296
摇了	-297
贝克	-298
的声音	-299
先前	-300
起了	-301
非常	-302
气息	-303
同样	-304
纳德	-305
笑着	-306
只有	-307
就在	-308
眉头	-309
肯定	-310
浮现	-311
房间	-312
只要	-313
摇了摇头	-314
忍不住	-315
不错	-316
物品	-317
属于	-318
太阳	-319
速度	-320
后者	-321
一直	-322
得到	-323
片刻	-324
兰德	-325
有了	-326
在那	-327
一名	-328
笑容	-329
自然	-330
贝克兰德	-331
尔思	-332
部分	-333
开口	-334
明显	-335
佛尔思	-336
如何	-337
就算	-338
男子	-339
众人	-340
危险	-341
如同	-342
看来	-343
▁她	-344
斯帕	-345
猛然	-346
伦纳德	-347
任何	-348
明白	-349
响起	-350
格尔	-351
在一	-352
光芒	-353
带着	-354
封印	-355
了下来	-356
回答	-357
向了	-358
不同	-359
居然	-360
。“	-361
一眼	-362
势力	-363
必须	-364
斯帕罗	-365
不要	-366
一种	-367
相当	-368
格尔曼	-369
仿佛	-370
来越	-371
90	-372
另外	-373
越来越	-374
来说	-375
再次	-376
成了	-377
81	-378
化为	-379
依旧	-380
魂殿	-381
格尔曼斯帕罗	-382
此时	-383
2181	-384
2190	-385
21902181	-386
魔药	-387
真的	-388
阿尔	-389
出手	-390
位置	-391
无数	-392
当下	-393
丝毫	-394
盯着	-395
弟子	-396
灰雾	-397
或者	-398
一定	-399
看着	-400
机会	-401
教会	-402
之下	-403
心头	-404
之间	-405
入了	-406
非凡者	-407
觉得	-408
模样	-409
察觉	-410
阿蒙	-411
仪式	-412
的目光	-413
而去	-414
下来	-415
办法	-416
层次	-417
其他	-418
疯狂	-419
的地方	-420
帝国	-421
成功	-422
表情	-423
缓缓的	-424
不到	-425
有所	-426
希望	-427
云岚	-428
不得	-429
两个	-430
炼制	-431
它们	-432
小的	-433
毕竟	-434
第二	-435
是在	-436
里克	-437
了一句	-438
一样	-439
颇为	-440
好的	-441
了出来	-442
之外	-443
正常	-444
面色	-445
不由	-446
阿尔杰	-447
攻击	-448
不敢	-449
云岚宗	-450
战斗	-451
今日	-452
原本	-453
朋友	-454
那种	-455
山派	-456
的事	-457
笑了	-458
异常	-459
整个	-460
为了	-461
安静	-462
有点	-463
为什么	-464
发出	-465
当年	-466
诡异	-467
的实力	-468
紫研	-469
漆黑	-470
影响	-471
甚么	-472
可怕	-473
▁一	-474
成员	-475
正义	-476
视线	-477
一道道	-478
变化	-479
真正的	-480
注视	-481
远处	-482
三人	-483
说话	-484
继续	-485
眼眸	-486
这等	-487
没想到	-488
风暴	-489
纳兰	-490
过了	-491
尊者	-492
美杜	-493
戴里克	-494
的黑	-495
身后	-496
距离	-497
▁闻言	-498
应的	-499
望向	-500
终于是	-501
隐隐	-502
别的	-503
美杜莎	-504
了口气	-505
感受	-506
落下	-507
即便是	-508
去了	-509
弥漫	-510
接着	-511
嘴角	-512
大陆	-513
脚步	-514
闪电	-515
的感觉	-516
让人	-517
倒吊	-518
小心	-519
精神	-520
上了	-521
既然	-522
▁见到	-523
仅仅	-524
波动	-525
特性	-526
埃姆	-527
埃姆林	-528
广场	-529
不可	-530
内院	-531
达尼	-532
达尼兹	-533
有人	-534
倒吊人	-535
自身	-536
皆是	-537
的时候	-538
并没有	-539
陡然	-540
抬起	-541
至于	-542
究竟	-543
回应	-544
等待	-545
使用	-546
材料	-547
这才	-548
住了	-549
除了	-550
魔兽	-551
身旁	-552
而下	-553
二人	-554
▁听得	-555
出去	-556
这次	-557
立刻	-558
年轻	-559
微微一	-560
不再	-561
看了	-562
多的	-563
在萧炎	-564
人影	-565
控制	-566
的确	-567
着一	-568
星斗	-569
经过	-570
发生	-571
”。	-572
有什么	-573
的小	-574
将会	-575
沉默	-576
难道	-577
巨大的	-578
件事情	-579
今天	-580
刚刚	-581
自然是	-582
一步	-583
塞尔	-584
罗塞尔	-585
正是	-586
获得	-587
认为	-588
半神	-589
狠狠的	-590
真实	-591
笑了笑	-592
打算	-593
的能量	-594
手指	-595
▁随着	-596
来到	-597
半空	-598
身份	-599
又是	-600
本身	-601
即使	-602
老人	-603
将之	-604
动的	-605
虚幻	-606
药材	-607
女士	-608
至少	-609
天地	-610
无奈	-611
更加	-612
她的	-613
重的	-614
类似	-615
未曾	-616
并非	-617
地面	-618
之力	-619
曾经	-620
开了	-621
斗技	-622
的血	-623
相信	-624
在这里	-625
很多	-626
让他	-627
无声	-628
灰雾之上	-629
是否	-630
灵性	-631
果然	-632
寻找	-633
显得	-634
不管	-635
脸庞上	-636
不见	-637
不用	-638
奇异	-639
出了一	-640
有一	-641
通过	-642
目标	-643
淡淡的	-644
下的	-645
意识	-646
根本	-647
虽说	-648
地方	-649
在其	-650
容易	-651
借助	-652
就像	-653
不群	-654
了两	-655
念头	-656
当初	-657
不由得	-658
波东	-659
岳不群	-660
转身	-661
效果	-662
海波东	-663
老师	-664
飞快	-665
不断的	-666
帮助	-667
足够	-668
上去	-669
无形	-670
并且	-671
大师	-672
的时间	-673
解决	-674
凝聚	-675
太过	-676
推荐	-677
传出	-678
各种	-679
里面	-680
片刻后	-681
也许	-682
作为	-683
现在的	-684
程度	-685
区域	-686
多少	-687
而是	-688
这片	-689
之色	-690
色火焰	-691
双手	-692
情绪	-693
深处	-694
背后	-695
一边	-696
不可能	-697
他们的	-698
一动	-699
简单	-700
尽数	-701
起身	-702
露出	-703
全部	-704
只见	-705
心里	-706
之时	-707
白银	-708
女神	-709
平静	-710
了个	-711
分钟	-712
一片	-713
达到	-714
想法	-715
猛的	-716
告诉	-717
几个	-718
麻烦	-719
出现在了	-720
女王	-721
疑惑	-722
选择	-723
重要	-724
00	-725
塔罗	-726
生物	-727
而起	-728
女子	-729
右手	-730
恢复	-731
嫣然	-732
逐渐的	-733
巨人	-734
斗宗	-735
之人	-736
非凡特性	-737
师父	-738
成的	-739
拳头	-740
教堂	-741
天际	-742
山脉	-743
扭曲	-744
的青	-745
暴涌	-746
的望着	-747
绝对	-748
段时间	-749
威尔	-750
一条	-751
急速	-752
表面	-753
出来的	-754
哪里	-755
庞大的	-756
下了	-757
注意	-758
第三	-759
剑法	-760
盈盈	-761
瞧得	-762
古老	-763
了一些	-764
不了	-765
前方	-766
脸上	-767
大厅	-768
担心	-769
兄弟	-770
苏千	-771
了许多	-772
加玛	-773
按照	-774
接触	-775
而开	-776
鲜血	-777
左右	-778
随意	-779
烈的	-780
而来	-781
月票	-782
天空上	-783
的情况	-784
的克莱恩	-785
手臂	-786
秘偶	-787
抬头	-788
显然	-789
脑海	-790
进了	-791
没什么	-792
声响	-793
的强者	-794
的力量	-795
其实	-796
二十	-797
历史	-798
更是	-799
少女	-800
即将	-801
怀疑	-802
长剑	-803
等到	-804
小子	-805
的神	-806
闪烁	-807
▁望着	-808
依然	-809
下方	-810
之声	-811
旁边	-812
确认	-813
许些	-814
施展	-815
两位	-816
白银城	-817
的那些	-818
一旁	-819
就能	-820
有的	-821
........	-822
的方	-823
描述	-824
陨落	-825
浓郁	-826
白的	-827
保持	-828
梦境	-829
斗皇	-830
日后	-831
原来	-832
相应的	-833
听到	-834
脸颊	-835
说不	-836
宛如	-837
以前	-838
好了	-839
忍不住的	-840
召唤	-841
之一	-842
给我	-843
而已	-844
毫无	-845
隐秘	-846
▁对于	-847
萧炎也是	-848
不然	-849
则是	-850
生的	-851
考虑	-852
还能	-853
封印物	-854
所谓	-855
我想	-856
黑夜	-857
我会	-858
找到	-859
沉吟	-860
意思	-861
马车	-862
黑暗	-863
’,	-864
少年	-865
心理	-866
丽雅	-867
包裹	-868
嘉德	-869
关系	-870
提升	-871
嘉德丽雅	-872
消息	-873
爆发	-874
尝试	-875
大门	-876
兹克	-877
的盯着	-878
阿兹克	-879
实在	-880
很快	-881
长的	-882
加玛帝国	-883
▁令狐冲	-884
一人	-885
让我	-886
将那	-887
现实	-888
邓恩	-889
算是	-890
略微有些	-891
夫人	-892
收回	-893
怪物	-894
▁这个	-895
低沉	-896
跟着	-897
句话	-898
喜欢	-899
熟悉	-900
最近	-901
结果	-902
不仅	-903
正在	-904
来了	-905
迟疑	-906
普通	-907
灵魂力量	-908
的空间	-909
死亡	-910
也就是	-911
组织	-912
萧家	-913
到时候	-914
黑袍	-915
猜测	-916
嘴巴	-917
学院	-918
掌握	-919
模糊	-920
灵珊	-921
韩枫	-922
途径的	-923
魔术	-924
前者	-925
掠过	-926
在一起	-927
已是	-928
德森	-929
父亲	-930
名字	-931
强行	-932
海盗	-933
的身影	-934
出一	-935
坐在	-936
结束	-937
的问题	-938
半点	-939
纳戒	-940
纳兰嫣然	-941
了解	-942
冷笑	-943
拥有	-944
哈哈	-945
略显	-946
听见	-947
拍卖	-948
对着萧炎	-949
快速	-950
了过去	-951
配方	-952
是什么	-953
完成	-954
咱们	-955
地说道	-956
岳灵珊	-957
表现	-958
闪过	-959
林平	-960
火莲	-961
否则	-962
内的	-963
以为	-964
嘿嘿	-965
药鼎	-966
的主	-967
液体	-968
决定	-969
急忙	-970
才能	-971
更新	-972
月亮	-973
直接是	-974
出的	-975
阴沉	-976
意外	-977
极其	-978
笼罩	-979
的新	-980
远古	-981
的一声	-982
消散	-983
女人	-984
喝道	-985
佣兵	-986
了不少	-987
轻声道	-988
魔术师	-989
所在	-990
林平之	-991
隐藏	-992
方面	-993
寻常	-994
必然	-995
当即	-996
我也	-997
里的	-998
多年	-999
你是	-1000
扫过	-1001
看见了	-1002
变成	-1003
着那	-1004
缓慢	-1005
足以	-1006
凝重	-1007
炽热	-1008
雾气	-1009
失败	-1010
总是	-1011
老夫	-1012
的话语	-1013
停留	-1014
稳定	-1015
唯一	-1016
就会	-1017
将近	-1018
掌门	-1019
不太	-1020
十几	-1021
城市	-1022
角域	-1023
重尺	-1024
确实	-1025
了过来	-1026
造物	-1027
就算是	-1028
感到	-1029
紧紧	-1030
▁当然	-1031
▁就在	-1032
▁这是	-1033
众多	-1034
悄然	-1035
痕迹	-1036
虚无	-1037
早就	-1038
闪掠	-1039
别人	-1040
此处	-1041
造物主	-1042
低声	-1043
天火	-1044
灵界	-1045
看到	-1046
遇见	-1047
的他	-1048
嘴中	-1049
此次	-1050
克莱恩的	-1051
之处	-1052
晋升	-1053
样的	-1054
巨大	-1055
犹豫	-1056
说过	-1057
这样的	-1058
大家	-1059
中州	-1060
斯特	-1061
恐怖的	-1062
岩浆	-1063
巅峰	-1064
透明	-1065
了他	-1066
动手	-1067
妖火	-1068
最终	-1069
特殊	-1070
鲁恩	-1071
转过	-1072
他也	-1073
内部	-1074
思绪	-1075
情报	-1076
嗓音	-1077
黑角域	-1078
将目光	-1079
扩散	-1080
接近	-1081
手中的	-1082
暴涌而出	-1083
第一千	-1084
见过	-1085
出现了	-1086
▁望着那	-1087
一张	-1088
它的	-1089
开来	-1090
想必	-1091
反应	-1092
▁不过	-1093
松了一口气	-1094
感应	-1095
返回	-1096
先生的	-1097
门口	-1098
冰冷	-1099
小时	-1100
云山	-1101
叹息	-1102
魂族	-1103
的斗气	-1104
令狐冲道	-1105
是因为	-1106
的一些	-1107
外面	-1108
满脸	-1109
遭遇	-1110
感觉到	-1111
的东西	-1112
这一次	-1113
确定	-1114
也就	-1115
命运	-1116
奇怪	-1117
斗尊	-1118
秘密	-1119
以后	-1120
地的	-1121
认识	-1122
转向	-1123
喝声	-1124
蕴含	-1125
几乎是	-1126
有种	-1127
知识	-1128
具备	-1129
来自	-1130
察觉到	-1131
冒险	-1132
提供	-1133
站在	-1134
会的	-1135
骤然	-1136
双眼	-1137
好几	-1138
这家伙	-1139
丹塔	-1140
喃喃	-1141
碧绿	-1142
一本	-1143
最为	-1144
那是	-1145
重新	-1146
放心	-1147
红的	-1148
所有人	-1149
依靠	-1150
这件事情	-1151
的信	-1152
那一	-1153
的朋友	-1154
任务	-1155
充满	-1156
暴射	-1157
主教	-1158
但却	-1159
行动	-1160
尸体	-1161
微笑	-1162
三千	-1163
人类	-1164
动作	-1165
房屋	-1166
虚空	-1167
下去	-1168
多久	-1169
只得	-1170
应该是	-1171
老家伙	-1172
一切	-1173
阴影	-1174
青年	-1175
女孩	-1176
颤抖	-1177
开口道	-1178
一挥	-1179
失控	-1180
微微点头	-1181
兴趣	-1182
回到	-1183
眼前	-1184
一起	-1185
冲着	-1186
古族	-1187
样子	-1188
额头	-1189
进入了	-1190
萧厉	-1191
融合	-1192
好奇	-1193
之王	-1194
仪琳	-1195
会有	-1196
回去	-1197
唐泰	-1198
还不	-1199
唐泰斯	-1200
值夜	-1201
房门	-1202
眼神	-1203
伯光	-1204
缘故	-1205
认真	-1206
田伯光	-1207
之事	-1208
灵体	-1209
老鬼	-1210
不及	-1211
微微一笑	-1212
三十	-1213
生命	-1214
的心	-1215
记得	-1216
探索	-1217
给你	-1218
四周	-1219
空气	-1220
诧异	-1221
功法	-1222
好看	-1223
第四	-1224
半晌	-1225
大哥	-1226
做出	-1227
受到	-1228
在他	-1229
值夜者	-1230
三个	-1231
与此	-1232
回来	-1233
场中	-1234
隐者	-1235
的那个	-1236
不远处	-1237
想象	-1238
提前	-1239
白色	-1240
祈祷	-1241
黑皇	-1242
说不定	-1243
利用	-1244
提醒	-1245
睁开	-1246
我是	-1247
丽莎	-1248
举动	-1249
可惜	-1250
笑声	-1251
附近	-1252
雅妃	-1253
安德森	-1254
一只	-1255
但是	-1256
没法	-1257
还未	-1258
也是在	-1259
的手	-1260
联盟	-1261
本来	-1262
调查	-1263
头发	-1264
收藏	-1265
笑了一声	-1266
闪电般的	-1267
净莲	-1268
大长老	-1269
吞噬	-1270
抓住	-1271
一定的	-1272
还不错	-1273
持续	-1274
突破	-1275
所谓的	-1276
蔓延	-1277
拥有着	-1278
强悍	-1279
放弃	-1280
回答道	-1281
害怕	-1282
菩提	-1283
那般	-1284
面前的	-1285
思考	-1286
某些	-1287
温度	-1288
留下	-1289
裂缝	-1290
过程	-1291
主动	-1292
对付	-1293
无奈的	-1294
的身体	-1295
涌现	-1296
观察	-1297
进去	-1298
伴随着	-1299
云韵	-1300
打开	-1301
苍老	-1302
对手	-1303
眸子	-1304
目前	-1305
紧握	-1306
给予	-1307
制造	-1308
心炎	-1309
聚会	-1310
欢迎	-1311
胸口	-1312
强横	-1313
紧接着	-1314
上面	-1315
范围	-1316
顺利	-1317
一旦	-1318
充斥	-1319
即便	-1320
了一阵	-1321
与此同时	-1322
》,	-1323
队长	-1324
解释	-1325
恩唐泰斯	-1326
单词	-1327
笔记	-1328
都会	-1329
▁说	-1330
远远	-1331
第一百	-1332
、“	-1333
不多	-1334
始终	-1335
这东西	-1336
两道	-1337
保护	-1338
抵达	-1339
毫不	-1340
便是能够	-1341
一怔	-1342
敌人	-1343
神奇	-1344
询问	-1345
在心里	-1346
由于	-1347
的火	-1348
神灵	-1349
凝固	-1350
产生	-1351
处于	-1352
布满	-1353
自语	-1354
随即	-1355
暂时	-1356
连忙	-1357
老头	-1358
三位	-1359
了什么	-1360
古河	-1361
各自	-1362
护法	-1363
失去了	-1364
随之	-1365
非凡能力	-1366
接受	-1367
的气	-1368
疯狂的	-1369
而来的	-1370
也没	-1371
天妖	-1372
暗中	-1373
靠近	-1374
线索	-1375
只不过	-1376
哥哥	-1377
大帝	-1378
等级	-1379
森林	-1380
两名	-1381
目的	-1382
颜色	-1383
经验	-1384
大部分	-1385
交易	-1386
看上去	-1387
了一口	-1388
内心	-1389
经历	-1390
作用	-1391
陨落心炎	-1392
全身	-1393
那张	-1394
阴冷	-1395
动着	-1396
毁灭	-1397
脚掌	-1398
资格	-1399
顺着	-1400
▁奥黛丽	-1401
他是	-1402
导致	-1403
左手	-1404
愿意	-1405
话音	-1406
那样	-1407
若非	-1408
其余	-1409
卷轴	-1410
大地	-1411
子的	-1412
还好	-1413
略有些	-1414
第一次	-1415
她们	-1416
看了一眼	-1417
走了	-1418
改变	-1419
通道	-1420
竟然是	-1421
之地	-1422
都没有	-1423
隐隐间	-1424
环境	-1425
莎伦	-1426
推荐一本	-1427
▁不	-1428
意的	-1429
塔罗会	-1430
浑身	-1431
并非是	-1432
场景	-1433
语气	-1434
伸手	-1435
边缘	-1436
黑影	-1437
心神	-1438
皮肤	-1439
中年	-1440
令人	-1441
斗王	-1442
可以看	-1443
接下来	-1444
一来	-1445
也会	-1446
具体	-1447
混乱	-1448
遗迹	-1449
淡淡的道	-1450
力的	-1451
给了	-1452
教主	-1453
质量	-1454
的状态	-1455
加列	-1456
所说	-1457
爆炸	-1458
相比	-1459
谨慎	-1460
当时	-1461
微皱	-1462
沉声道	-1463
道恩唐泰斯	-1464
前辈	-1465
心火	-1466
的灵魂	-1467
的能力	-1468
什么时候	-1469
操纵	-1470
石台	-1471
身子	-1472
银色	-1473
的高	-1474
眼瞳	-1475
血液	-1476
内容	-1477
风雷	-1478
占卜家	-1479
也有	-1480
恐惧	-1481
些许	-1482
魔女	-1483
原因	-1484
净莲妖火	-1485
狂暴	-1486
了吧	-1487
味道	-1488
将其	-1489
愕然	-1490
南学院	-1491
天赋	-1492
源堡	-1493
苍白	-1494
一时	-1495
仔细	-1496
对面	-1497
还要	-1498
放在	-1499
便是会	-1500
的位置	-1501
一脸	-1502
也能	-1503
消化	-1504
超过	-1505
周围的	-1506
于是	-1507
不想	-1508
叫做	-1509
大概	-1510
把握	-1511
订阅	-1512
萧炎等人	-1513
徐徐	-1514
轻松	-1515
一枚	-1516
▁虽然	-1517
响彻	-1518
武功	-1519
外的	-1520
加上	-1521
——	-1522
定的	-1523
行去	-1524
街道	-1525
你这	-1526
感受到	-1527
反而	-1528
气的	-1529
符号	-1530
微笑道	-1531
这一幕	-1532
困难	-1533
无人	-1534
比如	-1535
祈求	-1536
▁见	-1537
半个	-1538
后来	-1539
▁他的	-1540
萧炎那	-1541
不够	-1542
后面	-1543
将它	-1544
悬浮	-1545
▁此时	-1546
抬起头	-1547
美杜莎女王	-1548
师太	-1549
斗圣	-1550
进行	-1551
一口	-1552
科林	-1553
炎谷	-1554
细微	-1555
日记	-1556
稳定更新	-1557
书荒	-1558
炼化	-1559
▁推荐一本	-1560
回荡	-1561
天尊	-1562
可以看一下	-1563
哪怕	-1564
死的	-1565
狗神	-1566
的新作	-1567
闹书荒	-1568
收藏订阅	-1569
迦南学院	-1570
好看的新作	-1571
质量还不错	-1572
欢迎收藏订阅	-1573
闹书荒的朋友	-1574
▁推荐一本好看的新作	-1575
闹书荒的朋友可以看一下	-1576
让你	-1577
将这	-1578
师妹	-1579
帮忙	-1580
近乎	-1581
不好	-1582
关键	-1583
突然间	-1584
星陨	-1585
▁当	-1586
动静	-1587
观众	-1588
的速度	-1589
初步	-1590
回了	-1591
尼尔	-1592
衣物	-1593
话语	-1594
那道	-1595
:‘	-1596
不出	-1597
似是	-1598
新的	-1599
还没	-1600
下意识	-1601
了一点	-1602
叫道	-1603
山峰	-1604
喉咙	-1605
山洞	-1606
............	-1607
尽头	-1608
扮演	-1609
莫名	-1610
的气息	-1611
暴掠	-1612
贝尔	-1613
进来	-1614
长桌	-1615
没有丝毫	-1616
头顶	-1617
强大	-1618
队伍	-1619
不小的	-1620
这个时候	-1621
想起	-1622
符咒	-1623
这话	-1624
古怪	-1625
巨龙	-1626
血脉	-1627
金色	-1628
神秘学	-1629
站起身	-1630
面对着	-1631
是谁	-1632
涌上	-1633
低声道	-1634
三年	-1635
联系	-1636
走到	-1637
庞大	-1638
难怪	-1639
领域	-1640
星陨阁	-1641
代表	-1642
偶尔	-1643
也没有	-1644
对方的	-1645
猛的一	-1646
柳擎	-1647
科尔	-1648
梅丽莎	-1649
注视下	-1650
的存在	-1651
侦探	-1652
将目光投	-1653
处理	-1654
对视	-1655
小队	-1656
是我	-1657
劲风	-1658
者的	-1659
一点点	-1660
不对	-1661
斗师	-1662
那股	-1663
一旁的	-1664
不需要	-1665
斗宗强者	-1666
拿出	-1667
恒山派	-1668
一丝	-1669
那名	-1670
是一个	-1671
不成	-1672
复杂	-1673
想着	-1674
杀了	-1675
彼此	-1676
方向	-1677
也不会	-1678
天帝	-1679
密斯	-1680
试图	-1681
变成了	-1682
必要	-1683
恶灵	-1684
掌心	-1685
萨克	-1686
▁在萧炎	-1687
某种	-1688
穿着	-1689
落在	-1690
过的	-1691
努力	-1692
有关	-1693
本能	-1694
答应	-1695
象征	-1696
又一次	-1697
下午	-1698
伤害	-1699
玉瓶	-1700
肩膀	-1701
袖袍	-1702
不得不	-1703
一闪	-1704
呼吸	-1705
破坏	-1706
维持	-1707
之中的	-1708
十二	-1709
消耗	-1710
狰狞	-1711
隐约	-1712
被人	-1713
里安	-1714
压制	-1715
心想	-1716
直到	-1717
转而	-1718
这两	-1719
重重	-1720
散发	-1721
短短	-1722
间的	-1723
到这里	-1724
彩鳞	-1725
比起	-1726
覆盖	-1727
还在	-1728
了一会	-1729
实在是	-1730
现实世界	-1731
惊骇	-1732
无疑	-1733
记忆	-1734
了几秒	-1735
任我	-1736
污染	-1737
厉害	-1738
将他	-1739
很有	-1740
意味	-1741
拿着	-1742
一刻	-1743
忘记	-1744
感谢	-1745
此人	-1746
保持着	-1747
小家伙	-1748
一处	-1749
听着	-1750
想了	-1751
本体	-1752
答案	-1753
霍然	-1754
地下	-1755
信使	-1756
走出	-1757
了下头	-1758
华山派	-1759
一把	-1760
婆婆	-1761
导师	-1762
某个	-1763
依然是	-1764
不上	-1765
很难	-1766
萧玉	-1767
贵族	-1768
雄浑	-1769
震惊	-1770
魂天帝	-1771
凌厉	-1772
吸引	-1773
宗主	-1774
萧玄	-1775
都不	-1776
天火尊者	-1777
嘴唇	-1778
海神	-1779
上次	-1780
气势	-1781
船长	-1782
一个人	-1783
了下去	-1784
他在	-1785
休息	-1786
后退	-1787
任我行	-1788
可怕的	-1789
求月票	-1790
▁”	-1791
手套	-1792
掩饰	-1793
造成	-1794
▁然后	-1795
之意	-1796
五岳	-1797
我就	-1798
手段	-1799
生活	-1800
痛苦	-1801
说明	-1802
七彩	-1803
对他	-1804
死了	-1805
法犸	-1806
转移	-1807
地问道	-1808
倘若	-1809
向问	-1810
死神	-1811
向问天	-1812
传来	-1813
猛地	-1814
充斥着	-1815
根据	-1816
也不是	-1817
掠过一抹	-1818
威力	-1819
皱眉	-1820
笑着点了点头	-1821
太多	-1822
愧是	-1823
收敛	-1824
果然是	-1825
的脸庞	-1826
事物	-1827
吴昊	-1828
宫殿	-1829
阳光	-1830
的望着那	-1831
手印	-1832
缓步	-1833
老尼尔	-1834
经脉	-1835
角落	-1836
做什么	-1837
人物	-1838
劲气	-1839
双方	-1840
看得	-1841
还真是	-1842
只觉	-1843
戴着	-1844
时刻	-1845
的那种	-1846
萧炎目光	-1847
......,	-1848
一句	-1849
安全	-1850
寂静	-1851
十五	-1852
家的	-1853
清晰	-1854
金币	-1855
一路	-1856
分别	-1857
立在	-1858
重重的	-1859
不然的话	-1860
勉强	-1861
下来的	-1862
拿起	-1863
像是	-1864
几位	-1865
收获	-1866
杀意	-1867
短暂	-1868
望了	-1869
走向	-1870
颔首	-1871
的模样	-1872
会被	-1873
刚欲	-1874
判断	-1875
少林	-1876
面对	-1877
是不是	-1878
▁就	-1879
惊讶	-1880
▁等到	-1881
品炼药师	-1882
要是	-1883
首席	-1884
离开了	-1885
弗兰	-1886
资料	-1887
轻叹	-1888
如今的	-1889
伯爵	-1890
天盖	-1891
格斯	-1892
简直	-1893
翼翼	-1894
转头	-1895
轻易	-1896
这就是	-1897
人员	-1898
失去	-1899
挣扎	-1900
高级	-1901
回应道	-1902
风尊者	-1903
小心翼翼	-1904
吐了一口气	-1905
性的	-1906
要求	-1907
身前	-1908
很是	-1909
报纸	-1910
之上将	-1911
的家伙	-1912
一根	-1913
在下	-1914
慢慢	-1915
手杖	-1916
在这种	-1917
四人	-1918
大殿	-1919
理会	-1920
纳黛	-1921
的人影	-1922
萧炎心中	-1923
贝尔纳黛	-1924
但这	-1925
定然	-1926
开启	-1927
礼帽	-1928
还有着	-1929
铺天盖	-1930
黑色的	-1931
圣者	-1932
扫了	-1933
特别	-1934
血族	-1935
不同的	-1936
并不是	-1937
诡异的	-1938
浮现一抹	-1939
你说	-1940
孩子	-1941
水晶	-1942
说着	-1943
不少人	-1944
让得他	-1945
从未	-1946
还真	-1947
一头	-1948
古元	-1949
待得	-1950
欲望	-1951
左冷	-1952
席卷	-1953
年的	-1954
缭绕	-1955
茫然	-1956
一件	-1957
亚特	-1958
价值	-1959
伸出	-1960
之上的	-1961
比较	-1962
而进	-1963
警察	-1964
轻轻的	-1965
真实造物主	-1966
一圈	-1967
交流	-1968
在心中	-1969
三大	-1970
行人	-1971
看起来	-1972
华山	-1973
过头	-1974
一个个	-1975
被萧炎	-1976
那就是	-1977
几人	-1978
我有	-1979
戒指	-1980
看似	-1981
左冷禅	-1982
的那位	-1983
瞥了一眼	-1984
傀儡	-1985
是个	-1986
画面	-1987
的光芒	-1988
脑海内	-1989
上前	-1990
旋转	-1991
。“”	-1992
▁............	-1993
▁如果	-1994
)===	-1995
微微点了点头	-1996
报酬	-1997
殿主	-1998
联手	-1999
▁s	-2000
维尔	-2001
喃喃道	-2002
推荐票	-2003
▁紧接着	-2004
的男子	-2005
也就是说	-2006
体内斗气	-2007
点了下头	-2008
一团	-2009
的光	-2010
那就	-2011
剧烈的	-2012
家族的	-2013
老先生	-2014
防御	-2015
之物	-2016
俏脸	-2017
周身	-2018
带起	-2019
了出去	-2020
都是在	-2021
了啊	-2022
在意	-2023
恶魔	-2024
莉丝	-2025
可不是	-2026
的缘故	-2027
不起	-2028
形成	-2029
最好	-2030
此话	-2031
都没	-2032
青鳞	-2033
▁然而	-2034
低头	-2035
加入	-2036
可却	-2037
得很	-2038
着的	-2039
▁我	-2040
不小	-2041
侧头	-2042
那便	-2043
那片	-2044
让得萧炎	-2045
处的	-2046
大多	-2047
相对	-2048
黄泉	-2049
▁目光	-2050
冷笑道	-2051
怎么样	-2052
环顾	-2053
无数道	-2054
魔药配方	-2055
吩咐	-2056
学员	-2057
的将	-2058
成形	-2059
打量	-2060
早已	-2061
的风	-2062
冒险家	-2063
但他	-2064
停止	-2065
后续	-2066
摘星	-2067
无论	-2068
柔和	-2069
以往	-2070
参加	-2071
新生	-2072
此事	-2073
王国	-2074
磅礴	-2075
的机会	-2076
介绍	-2077
传说	-2078
冲击	-2079
分身	-2080
江湖	-2081
第五	-2082
不愧是	-2083
安提	-2084
给他	-2085
背影	-2086
都能	-2087
前往	-2088
战争	-2089
机械	-2090
爆裂	-2091
都有	-2092
▁这时	-2093
黑皇帝	-2094
的非凡者	-2095
心灵	-2096
条件	-2097
随时	-2098
僵硬	-2099
看看	-2100
饥饿	-2101
了一道	-2102
萧炎却是	-2103
涉及	-2104
灰白	-2105
的黑色	-2106
摘星老鬼	-2107
站起身来	-2108
黑夜女神	-2109
不久	-2110
萧鼎	-2111
达到了	-2112
一块	-2113
十字	-2114
坚持	-2115
安排	-2116
放下	-2117
方面的	-2118
查拉	-2119
台上	-2120
惊愕	-2121
汇聚	-2122
深吸	-2123
身为	-2124
阻拦	-2125
了一圈	-2126
查拉图	-2127
怨魂	-2128
中央	-2129
狼狈	-2130
玉手	-2131
萧战	-2132
所有的	-2133
先是	-2134
接过	-2135
的火焰	-2136
▁伦纳德	-2137
▁与此同时	-2138
努斯	-2139
红色	-2140
重伤	-2141
其体内	-2142
之主	-2143
建筑	-2144
涟漪	-2145
种种	-2146
足足	-2147
弗兰克	-2148
想了想	-2149
注视着	-2150
你也	-2151
掌控	-2152
蛇人	-2153
那人	-2154
高的	-2155
。”“	-2156
两者	-2157
呈现	-2158
基本	-2159
看向	-2160
蒸汽	-2161
居然是	-2162
罗塞尔大帝	-2163
上一	-2164
忌惮	-2165
爹爹	-2166
眼镜	-2167
遇到	-2168
在这时	-2169
成为了	-2170
仙道	-2171
吸收	-2172
学派	-2173
心情	-2174
悄悄	-2175
紧闭	-2176
带来	-2177
的深	-2178
笑意	-2179
血肉	-2180
佣兵团	-2181
在那里	-2182
天使之王	-2183
青色	-2184
了一遍	-2185
之神	-2186
你能	-2187
几分	-2188
暴涨	-2189
巨人王	-2190
互相	-2191
冰河	-2192
包括	-2193
源于	-2194
美丽	-2195
的办法	-2196
有着一些	-2197
吞天	-2198
是的	-2199
状况	-2200
藏着	-2201
退后	-2202
中将	-2203
展开	-2204
搜集	-2205
食物	-2206
而出的	-2207
该怎么	-2208
亵渎	-2209
完美	-2210
屈指	-2211
炎火	-2212
眷者	-2213
面具	-2214
点头道	-2215
斗皇强者	-2216
地底	-2217
森然	-2218
的名	-2219
诅咒	-2220
依旧是	-2221
东方	-2222
墙壁	-2223
而那	-2224
类似的	-2225
地上	-2226
智慧	-2227
有效	-2228
期待	-2229
桃谷	-2230
补充	-2231
的老者	-2232
亚当	-2233
前面	-2234
参与	-2235
故意	-2236
林修	-2237
脱离	-2238
遮掩	-2239
青莲	-2240
哥努斯	-2241
得到了	-2242
安提哥努斯	-2243
上来	-2244
奥尔	-2245
完整	-2246
未必	-2247
方才能够	-2248
两种	-2249
这么多年	-2250
好处	-2251
本事	-2252
涌出	-2253
美眸	-2254
许久	-2255
飞行	-2256
三千焱	-2257
令得他	-2258
品丹药	-2259
我们的	-2260
神奇物品	-2261
合作	-2262
班森	-2263
▁这位	-2264
同样是	-2265
更多的	-2266
刚好	-2267
差点	-2268
承受	-2269
而过	-2270
房间内	-2271
持续了	-2272
林修崖	-2273
而随着	-2274
挥手	-2275
暴露	-2276
血色	-2277
身边	-2278
明白了	-2279
咬牙	-2280
遗留	-2281
的那一	-2282
蠕动的	-2283
医生	-2284
对我	-2285
属性	-2286
廷根	-2287
彻底的	-2288
想起了	-2289
价格	-2290
岛屿	-2291
平淡	-2292
激动	-2293
长袍	-2294
”、“	-2295
天妖凰	-2296
太大的	-2297
这段时间	-2298
后的	-2299
旅行	-2300
特尔	-2301
紧绷	-2302
视着	-2303
还会	-2304
."	-2305
一愣	-2306
习惯	-2307
大战	-2308
是何	-2309
越加	-2310
的确是	-2311
没有任何	-2312
我在	-2313
玫瑰	-2314
眼见	-2315
对应的	-2316
已经是	-2317
子弹	-2318
年龄	-2319
弗萨克	-2320
一变	-2321
剧烈	-2322
升腾	-2323
四十	-2324
外界	-2325
深的	-2326
细节	-2327
三千焱炎火	-2328
武器	-2329
的金	-2330
蜡烛	-2331
手掌一	-2332
摆脱	-2333
磐门	-2334
这里的	-2335
萧炎哥哥	-2336
厄难	-2337
尽快	-2338
已然	-2339
明天	-2340
蒂斯	-2341
阁下	-2342
因为他	-2343
脸庞上的	-2344
”“	-2345
做了	-2346
几十	-2347
出声	-2348
取出	-2349
说什么	-2350
一章	-2351
因斯	-2352
我不	-2353
方证	-2354
暗自	-2355
而在	-2356
黄金	-2357
尖锐	-2358
斗帝	-2359
白山	-2360
级别	-2361
会不会	-2362
这些人	-2363
原地	-2364
委托	-2365
意料	-2366
男人	-2367
药族	-2368
完毕	-2369
的笑容	-2370
了克莱恩	-2371
▁就在这时	-2372
九幽	-2373
听说	-2374
拿到	-2375
赞格	-2376
较为	-2377
的恐怖	-2378
赞格威尔	-2379
不算	-2380
压抑	-2381
发展	-2382
性命	-2383
抗衡	-2384
斟酌	-2385
泛着	-2386
清醒	-2387
眨眼	-2388
轻声	-2389
霎那	-2390
小丑	-2391
死死	-2392
残留	-2393
泛起	-2394
陷入	-2395
再加上	-2396
有所思	-2397
还没有	-2398
多了	-2399
璀璨	-2400
的在	-2401
闪现	-2402
一般的	-2403
吞天蟒	-2404
自身的	-2405
这一点	-2406
实质	-2407
影子	-2408
愤怒	-2409
略感	-2410
为何	-2411
凭借	-2412
天下	-2413
曹颖	-2414
经常	-2415
▁心中	-2416
叹了口气	-2417
因斯赞格威尔	-2418
到得	-2419
惊喜	-2420
时而	-2421
身着	-2422
震撼	-2423
霍尔	-2424
米特尔	-2425
一段时间	-2426
的情况下	-2427
土豆	-2428
地步	-2429
林焱	-2430
记录	-2431
的方式	-2432
这些年	-2433
化为一道	-2434
放松	-2435
负责	-2436
降临	-2437
黯淡	-2438
年时间	-2439
仅仅只是	-2440
一场	-2441
紧张	-2442
让她	-2443
000	-2444
便是被	-2445
因蒂斯	-2446
若有所思	-2447
六章	-2448
天墓	-2449
收拾	-2450
时代	-2451
武林	-2452
纸张	-2453
诡秘	-2454
萧炎与	-2455
双翼	-2456
在我	-2457
形象	-2458
狂风	-2459
小师妹	-2460
最后的	-2461
八章	-2462
展现	-2463
数量	-2464
是他	-2465
椅子	-2466
身穿	-2467
与萧炎	-2468
高序列	-2469
,‘	-2470
七章	-2471
三章	-2472
从中	-2473
凶悍	-2474
击杀	-2475
动了	-2476
反抗	-2477
咬着	-2478
对抗	-2479
方式	-2480
穿过	-2481
也不知道	-2482
一天	-2483
一座	-2484
妖傀	-2485
工作	-2486
很好	-2487
感叹	-2488
掉了	-2489
斗灵	-2490
族长	-2491
燃烧	-2492
苏醒	-2493
的丹药	-2494
身形一动	-2495
青色火焰	-2496
恍然	-2497
撕裂	-2498
符合	-2499
绯红	-2500
蓝色	-2501
在了一	-2502
差不多	-2503
九章	-2504
微眯	-2505
怎样	-2506
精灵	-2507
的手掌	-2508
不行	-2509
五十	-2510
亲自	-2511
信息	-2512
勾勒	-2513
安静的	-2514
也是有些	-2515
中心	-2516
冷漠	-2517
差距	-2518
态度	-2519
衣衫	-2520
体内的	-2521
是一位	-2522
极为的	-2523
的眼睛	-2524
信徒	-2525
偏头	-2526
后方	-2527
而这	-2528
青城	-2529
黑雾	-2530
我知道	-2531
怎么可能	-2532
古龙	-2533
只剩	-2534
同伴	-2535
唯有	-2536
快步	-2537
钥匙	-2538
▁至于	-2539
有没有	-2540
爆发出	-2541
特莉丝	-2542
风雷阁	-2543
四章	-2544
将军	-2545
纳斯	-2546
诸多	-2547
魔教	-2548
也不敢	-2549
已经被	-2550
公司	-2551
十分	-2552
卧室	-2553
威压	-2554
炼丹	-2555
眼角	-2556
之前的	-2557
不弱	-2558
交手	-2559
客气	-2560
渗透	-2561
疑问	-2562
等等	-2563
这边	-2564
都在	-2565
在半空	-2566
呆滞	-2567
坐下	-2568
强的	-2569
当场	-2570
没再	-2571
第六	-2572
翻滚	-2573
▁因为	-2574
道身影	-2575
了我	-2576
大海	-2577
才是	-2578
沧海	-2579
玻璃	-2580
只见得	-2581
岳夫人	-2582
的事物	-2583
斗气大陆	-2584
大笑	-2585
奇迹	-2586
未来	-2587
管家	-2588
的样子	-2589
暴射而出	-2590
不在	-2591
到的	-2592
炼金	-2593
的药	-2594
静静	-2595
余沧海	-2596
即使是	-2597
对视了一眼	-2598
▁它	-2599
多谢	-2600
庄园	-2601
回复	-2602
拒绝	-2603
莫里	-2604
超凡	-2605
的对着	-2606
让他们	-2607
身体之上	-2608
不动	-2609
信仰	-2610
做的	-2611
年纪	-2612
拍了	-2613
握着	-2614
欣喜	-2615
破碎	-2616
蠕动	-2617
轰隆	-2618
星斗圣	-2619
出了一个	-2620
不败	-2621
停顿	-2622
子爵	-2623
率先	-2624
缝隙	-2625
而其	-2626
计划	-2627
回到了	-2628
▁阿尔杰	-2629
▁这个时候	-2630
主人	-2631
事件	-2632
余的	-2633
摇晃	-2634
理智	-2635
脖子	-2636
望向了	-2637
一缕	-2638
与那	-2639
半圣	-2640
对此	-2641
师弟	-2642
意义	-2643
除非	-2644
雷霆	-2645
▁他们	-2646
大小的	-2647
是一种	-2648
漆黑的	-2649
蠕动的饥饿	-2650
之感	-2651
冲动	-2652
尔特	-2653
无比	-2654
自我	-2655
阴森	-2656
黑白	-2657
天妖凰族	-2658
之心	-2659
尽量	-2660
疾病	-2661
碧绿火焰	-2662
伤势	-2663
收入	-2664
正好	-2665
炎盟	-2666
说得	-2667
的表情	-2668
迟疑了一下	-2669
乌斯	-2670
反正	-2671
审视	-2672
来得	-2673
铜哨	-2674
扫了扫	-2675
生生的	-2676
蕴含着	-2677
这个家伙	-2678
无奈的摇了摇头	-2679
几天	-2680
德斯	-2681
性子	-2682
极端	-2683
琳娜	-2684
的天	-2685
威尔昂	-2686
▁佛尔思	-2687
萧炎心头	-2688
▁被	-2689
古代	-2690
四个	-2691
配合	-2692
▁突然	-2693
便是在	-2694
三种	-2695
望去	-2696
约莫	-2697
艾尔	-2698
重复	-2699
魔法	-2700
你可以	-2701
所需要	-2702
的想法	-2703
轻轻颔首	-2704
云棱	-2705
姑娘	-2706
行走	-2707
长枪	-2708
骑士	-2709
感兴趣	-2710
没有了	-2711
愚者先生	-2712
铺天盖地的	-2713
。’	-2714
上将	-2715
之气	-2716
回忆	-2717
极度	-2718
的面	-2719
穿透	-2720
半晌后	-2721
强大的	-2722
拍了拍	-2723
亚蒂	-2724
十来	-2725
师娘	-2726
膨胀	-2727
随手	-2728
强烈的	-2729
的物品	-2730
莫里亚蒂	-2731
下一	-2732
拜朗	-2733
没能	-2734
浩瀚	-2735
这座	-2736
这么多	-2737
东区	-2738
之虫	-2739
占据	-2740
古帝	-2741
拱手	-2742
时的	-2743
相关	-2744
苏茜	-2745
表示	-2746
默默	-2747
其他的	-2748
奇异的	-2749
有些不	-2750
的青年	-2751
这一切	-2752
松了口气	-2753
亚伯	-2754
山谷	-2755
巨石	-2756
拉罕	-2757
指着	-2758
流淌	-2759
轰然	-2760
也只能	-2761
的同时	-2762
亚伯拉罕	-2763
吐了口气	-2764
缓缓的道	-2765
一族	-2766
尴尬	-2767
干扰	-2768
抱着	-2769
淡漠	-2770
深入	-2771
翻腾	-2772
走吧	-2773
我可以	-2774
时间的	-2775
阿兹克先生	-2776
一惊	-2777
主要	-2778
叶家	-2779
据说	-2780
提着	-2781
星辰	-2782
而言	-2783
这条	-2784
发的	-2785
回头	-2786
女儿	-2787
旅馆	-2788
盥洗	-2789
相同	-2790
祂的	-2791
购买	-2792
明显的	-2793
玫瑰学派	-2794
魂殿殿主	-2795
倒也	-2796
堕落	-2797
支持	-2798
知晓	-2799
研究	-2800
语言	-2801
运转	-2802
震得	-2803
那家伙	-2804
威尔昂赛	-2805
侵蚀	-2806
入口	-2807
局面	-2808
故事	-2809
来看	-2810
极光	-2811
纯粹	-2812
能否	-2813
艰难	-2814
阿罗	-2815
将萧炎	-2816
盥洗室	-2817
阿罗德斯	-2818
你要	-2819
兴奋	-2820
原始	-2821
戴莉	-2822
袭击	-2823
议员	-2824
详细	-2825
说了	-2826
赶忙	-2827
迷雾	-2828
陌生	-2829
飞掠	-2830
过程中	-2831
受伤	-2832
白发	-2833
白程	-2834
错愕	-2835
感受着	-2836
威尔昂赛汀	-2837
和我	-2838
失望	-2839
感知	-2840
更多	-2841
称为	-2842
年轻人	-2843
肯定会	-2844
地回答道	-2845
唐震	-2846
回过	-2847
大有	-2848
对应	-2849
左轮	-2850
布置	-2851
幸运	-2852
很少	-2853
永远	-2854
石板	-2855
锁定	-2856
风声	-2857
刚才的	-2858
很可能	-2859
在场	-2860
没事	-2861
海洋	-2862
特拉	-2863
足有	-2864
首领	-2865
大斗师	-2866
成了一	-2867
纳戒中	-2868
支撑	-2869
洛克	-2870
说的	-2871
黄昏	-2872
出现的	-2873
厄难毒	-2874
不死	-2875
列斯	-2876
躲避	-2877
这道	-2878
帕列斯	-2879
来到了	-2880
迅速的	-2881
消失不见	-2882
丰富	-2883
清脆	-2884
狩猎	-2885
苦笑	-2886
谢谢	-2887
透着	-2888
青铜	-2889
只听得	-2890
恢复了	-2891
找到了	-2892
▁见到萧炎	-2893
每个	-2894
意味着	-2895
一层	-2896
如其	-2897
建立	-2898
粉末	-2899
酒吧	-2900
却并未	-2901
我已经	-2902
桃谷六	-2903
苍白的	-2904
赫密斯	-2905
交给	-2906
压迫	-2907
对你	-2908
思索	-2909
愿望	-2910
撞击	-2911
凭空	-2912
宝石	-2913
理解	-2914
的老	-2915
离去	-2916
警惕	-2917
阅读	-2918
之间的	-2919
此刻的	-2920
玄重尺	-2921
苦笑道	-2922
足够的	-2923
前行	-2924
周一	-2925
我能	-2926
真要	-2927
突兀	-2928
身躯	-2929
镜子	-2930
心中的	-2931
伊利	-2932
全力	-2933
冷静	-2934
姿态	-2935
东方不败	-2936
伊利亚特	-2937
脸色也是	-2938
科林伊利亚特	-2939
八十	-2940
和他	-2941
投影	-2942
气塔	-2943
满意	-2944
猎人	-2945
直觉	-2946
胸膛	-2947
见状	-2948
难看	-2949
对着那	-2950
星斗尊	-2951
红色的	-2952
斗尊强者	-2953
星星	-2954
瞳孔	-2955
行为	-2956
通灵	-2957
的势力	-2958
第四纪	-2959
冷汗	-2960
塞尼	-2961
复活	-2962
我要	-2963
气旋	-2964
沿着	-2965
清儿	-2966
给人	-2967
这点	-2968
丝毫不	-2969
冰河谷	-2970
当真是	-2971
所蕴含	-2972
看了眼	-2973
级封印物	-2974
一对	-2975
兰尔	-2976
出口	-2977
帽子	-2978
紫色	-2979
对面的	-2980
兰尔乌斯	-2981
塞尼奥尔	-2982
心理炼金	-2983
吸力	-2984
攻势	-2985
称呼	-2986
第七	-2987
这句话	-2988
制作	-2989
移动	-2990
而上	-2991
释放	-2992
细微的	-2993
风暴教会	-2994
▁休	-2995
之门	-2996
亚姆	-2997
兰比	-2998
当日	-2999
得罪	-3000
指向	-3001
晚上	-3002
兰比斯	-3003
夏洛克	-3004
拜亚姆	-3005
天空之上	-3006
▁但	-3007
了那	-3008
从那	-3009
伪装	-3010
你不	-3011
冥宗	-3012
提起	-3013
赫温	-3014
带来的	-3015
打了个	-3016
萧炎眉头	-3017
▁......	-3018
一看	-3019
代价	-3020
光柱	-3021
内力	-3022
变故	-3023
女性	-3024
怀特	-3025
有多	-3026
辟邪	-3027
马里	-3028
他也是	-3029
白色的	-3030
天空上的	-3031
神秘女王	-3032
不清	-3033
几秒	-3034
叶重	-3035
回归	-3036
妮特	-3037
就要	-3038
心下	-3039
诵念	-3040
偏过头	-3041
蕾妮特	-3042
便士	-3043
容貌	-3044
张开	-3045
挥了	-3046
神来	-3047
等着	-3048
缺乏	-3049
萧族	-3050
飞速	-3051
射而出	-3052
马里奇	-3053
桃谷六仙	-3054
赫温兰比斯	-3055
九十	-3056
前提	-3057
失踪	-3058
女仆	-3059
对了	-3060
虚幻的	-3061
好像	-3062
宽敞	-3063
异变	-3064
抱歉	-3065
每次	-3066
负面	-3067
赏金	-3068
险些	-3069
这一刻	-3070
里面的	-3071
丈庞大的	-3072
蕾妮特缇	-3073
与他	-3074
剑谱	-3075
尊名	-3076
徽章	-3077
斗破	-3078
派的	-3079
皱了	-3080
这人	-3081
这股	-3082
邀请	-3083
▁作为	-3084
▁所以	-3085
地妖傀	-3086
丹雷	-3087
了去	-3088
位于	-3089
关注	-3090
可见	-3091
就连	-3092
沉睡	-3093
脸孔	-3094
萧门	-3095
黑袍人	-3096
▁从	-3097
再说	-3098
▁这种	-3099
弄清楚	-3100
的地步	-3101
突如其	-3102
一年	-3103
侍者	-3104
创造	-3105
前来	-3106
叫声	-3107
和尚	-3108
族人	-3109
源源	-3110
蘑菇	-3111
龙岛	-3112
龙王	-3113
随意的	-3114
惊叹	-3115
抽搐	-3116
楼梯	-3117
沉声	-3118
大师哥	-3119
尼科尔	-3120
▁伴随着	-3121
10	-3122
一转	-3123
做完	-3124
嘀咕	-3125
恒山	-3126
我来	-3127
时不	-3128
站起	-3129
绿色	-3130
预料	-3131
▁瞧得	-3132
想到了	-3133
炼气塔	-3134
的攻击	-3135
萧炎也	-3136
▁戴里克	-3137
蕾妮特缇尼科尔	-3138
两百	-3139
到达	-3140
太大	-3141
寒气	-3142
斯德	-3143
正要	-3144
罗亚	-3145
适合	-3146
魔镜	-3147
你有	-3148
取得	-3149
天蛇	-3150
心的	-3151
欣蓝	-3152
索罗亚	-3153
索罗亚斯德	-3154
你想	-3155
海柔	-3156
见识	-3157
就犹如	-3158
焚炼气塔	-3159
任由	-3160
双眸	-3161
开门	-3162
当真	-3163
碰撞	-3164
绝望	-3165
身材	-3166
阴寒	-3167
发现了	-3168
听说过	-3169
旁边的	-3170
海柔尔	-3171
也是有着	-3172
之线	-3173
慕骨	-3174
抵御	-3175
斑驳	-3176
苏勒	-3177
见面	-3178
闪过一抹	-3179
奥托	-3180
我和	-3181
擅长	-3182
玄空	-3183
齐林	-3184
一时间	-3185
地心火	-3186
齐林格斯	-3187
一会	-3188
多半	-3189
大人	-3190
密密	-3191
德尔	-3192
窗户	-3193
被他	-3194
麻麻	-3195
啊克莱恩	-3196
格罗塞尔	-3197
毫不犹豫	-3198
不觉	-3199
严重	-3200
免得	-3201
检查	-3202
神的	-3203
限制	-3204
鼻子	-3205
似乎是	-3206
却是突然	-3207
笑着摇了摇头	-3208
但也	-3209
我还	-3210
月光	-3211
涌动	-3212
灵感	-3213
煤气	-3214
神弃	-3215
自行	-3216
花纹	-3217
顶多	-3218
每一个	-3219
知道了	-3220
▁达尼兹	-3221
密密麻麻	-3222
保镖	-3223
得上	-3224
摆放	-3225
满足	-3226
自动	-3227
焚炎谷	-3228
举行	-3229
人都	-3230
你在	-3231
愈发	-3232
眉心	-3233
绅士	-3234
花费	-3235
随口	-3236
面上	-3237
的脸色	-3238
将目光投向了	-3239
下巴	-3240
天的	-3241
南大陆	-3242
同样的	-3243
完成了	-3244
嵩山派	-3245
在了一起	-3246
一份	-3247
乐部	-3248
又有	-3249
口中	-3250
尼姑	-3251
沉重	-3252
洛薇	-3253
这件	-3254
俱乐部	-3255
洛薇雅	-3256
的黑暗	-3257
身旁的	-3258
不安	-3259
杀人	-3260
沙漠	-3261
灵丹	-3262
男爵	-3263
艾伦	-3264
便是将	-3265
陷入了	-3266
既然如此	-3267
星之上将	-3268
具现	-3269
琥嘉	-3270
范痨	-3271
金属	-3272
▁“‘	-3273
▁这些	-3274
开始了	-3275
无形的	-3276
加快	-3277
变幻	-3278
各位	-3279
当前	-3280
正面	-3281
紫晶	-3282
运气	-3283
金光	-3284
魔狼	-3285
的身份	-3286
会是	-3287
在此	-3288
椅上	-3289
转动	-3290
锁链	-3291
最大的	-3292
等待着	-3293
严肃	-3294
可不	-3295
四处	-3296
太太	-3297
威胁	-3298
规则	-3299
说是	-3300
那座	-3301
极大的	-3302
脸颊上	-3303
这不是	-3304
叹了一口气	-3305
了口	-3306
其后	-3307
咆哮	-3308
恭敬	-3309
本源	-3310
权杖	-3311
死去	-3312
满了	-3313
的对	-3314
英雄	-3315
其他人	-3316
的大门	-3317
轻笑道	-3318
这小子	-3319
ps	-3320
一弹	-3321
一辈	-3322
寒意	-3323
敏锐	-3324
旁的	-3325
漩涡	-3326
目瞪	-3327
紫火	-3328
这场	-3329
闭上	-3330
阻止	-3331
骇然	-3332
玄空子	-3333
不自	-3334
吞炎	-3335
每天	-3336
焚决	-3337
照耀	-3338
登时	-3339
笑眯	-3340
规矩	-3341
十二章	-3342
的味道	-3343
的战斗	-3344
令得萧炎	-3345
令狐大哥	-3346
没有半点	-3347
在贝克兰德	-3348
一颤	-3349
七八	-3350
以他	-3351
值得	-3352
再也	-3353
平日	-3354
延伸	-3355
建议	-3356
感慨	-3357
碎片	-3358
缠绕	-3359
药尘	-3360
这番	-3361
目光中	-3362
下场	-3363
到手	-3364
浪费	-3365
钢笔	-3366
就如同	-3367
的消息	-3368
以此	-3369
便走	-3370
岩枭	-3371
父母	-3372
理由	-3373
盟主	-3374
身来	-3375
在这片	-3376
发现自己	-3377
求推荐票	-3378
眼中也是	-3379
埃姆林怀特	-3380
天焚炼气塔	-3381
他就	-3382
向着	-3383
大半	-3384
晚辈	-3385
正式	-3386
用来	-3387
的最	-3388
等于	-3389
翎泉	-3390
艾德	-3391
行礼	-3392
诸位	-3393
陵寝	-3394
也是被	-3395
天火三	-3396
笑眯眯	-3397
魔炎谷	-3398
然后便是	-3399
一番	-3400
口呆	-3401
坚硬	-3402
实的	-3403
引起	-3404
活着	-3405
献祭	-3406
窗外	-3407
肌肉	-3408
艾辛	-3409
餐厅	-3410
一行人	-3411
有机会	-3412
第一个	-3413
衣老者	-3414
准确	-3415
古树	-3416
打破	-3417
有个	-3418
纸人	-3419
虚弱	-3420
诱惑	-3421
十五章	-3422
的主人	-3423
级别的	-3424
一扫	-3425
低低	-3426
出门	-3427
只好	-3428
手里	-3429
杂着	-3430
眼的	-3431
纠缠	-3432
而立	-3433
苦修	-3434
走进	-3435
他便是	-3436
你应该	-3437
天火三玄	-3438
虚无吞炎	-3439
上空	-3440
哪个	-3441
坐于	-3442
排除	-3443
母亲	-3444
甚是	-3445
穿梭	-3446
若琳	-3447
赤红	-3448
辅助	-3449
地看着	-3450
德维尔	-3451
有丝毫	-3452
正常的	-3453
纳兰桀	-3454
回过神来	-3455
两侧	-3456
之眼	-3457
云芝	-3458
会在	-3459
位格	-3460
低语	-3461
光是	-3462
明亮	-3463
残影	-3464
阵阵	-3465
▁而且	-3466
多里安	-3467
拍卖场	-3468
灵体之线	-3469
突如其来的	-3470
噙着	-3471
定逸	-3472
气氛	-3473
自从	-3474
赶紧	-3475
不错的	-3476
了上去	-3477
五岳剑	-3478
小女孩	-3479
的神秘	-3480
露出了	-3481
目瞪口呆	-3482
但我	-3483
地位	-3484
实际	-3485
忙碌	-3486
有过	-3487
正风	-3488
生生	-3489
盘旋	-3490
▁接着	-3491
蓝色的	-3492
天火三玄变	-3493
区别	-3494
却又	-3495
深红	-3496
灵视	-3497
瞧着	-3498
▁——	-3499
刘正风	-3500
的意思	-3501
心脏	-3502
疑似	-3503
结合	-3504
讨论	-3505
错误	-3506
镶嵌	-3507
何况	-3508
切尔	-3509
咖啡	-3510
大量	-3511
盔甲	-3512
证明	-3513
雯娜	-3514
▁听到	-3515
地面上	-3516
大概率	-3517
阶别的	-3518
艾德雯娜	-3519
净化	-3520
几次	-3521
坦城	-3522
好好	-3523
最初	-3524
汉子	-3525
致的	-3526
阶别	-3527
巨人王庭	-3528
挥了挥手	-3529
神弃之地	-3530
不如	-3531
两年	-3532
未能	-3533
桌上	-3534
气质	-3535
满是	-3536
窃取	-3537
轻微	-3538
有可能	-3539
浓郁的	-3540
的变化	-3541
消失在了	-3542
也是越来越	-3543
双掌	-3544
发挥	-3545
守卫	-3546
崩溃	-3547
巴掌	-3548
见的	-3549
▁ps	-3550
▁在那	-3551
一股股	-3552
另一个	-3553
时间内	-3554
什么事情	-3555
微微一变	-3556
霍尔伯爵	-3557
他又	-3558
光团	-3559
只怕	-3560
天府	-3561
尔斯	-3562
灌注	-3563
神话	-3564
紧皱	-3565
见他	-3566
乌坦城	-3567
古老的	-3568
萧炎所	-3569
的点了点头	-3570
▁呼	-3571
上方	-3572
大会	-3573
定了	-3574
家里	-3575
尼斯	-3576
招呼	-3577
损失	-3578
来回	-3579
种族	-3580
那边	-3581
魔核	-3582
存在的	-3583
层次的	-3584
感应到	-3585
有一个	-3586
的目光中	-3587
觉得自己	-3588
吼声	-3589
天行	-3590
客厅	-3591
嵩山	-3592
师兄	-3593
牙齿	-3594
猎魔	-3595
自由	-3596
话题	-3597
天地间	-3598
落而下	-3599
扩散而出	-3600
斗王强者	-3601
▁将	-3602
一十	-3603
一是	-3604
上下	-3605
不论	-3606
书写	-3607
们的	-3608
含笑	-3609
启示	-3610
妖瞑	-3611
异的	-3612
惊天	-3613
打扰	-3614
脱口	-3615
自嘲	-3616
那也	-3617
低沉的	-3618
你知道	-3619
消失在	-3620
的方向	-3621
若琳导师	-3622
这样一来	-3623
丹会	-3624
外套	-3625
意志	-3626
挑选	-3627
略作	-3628
联络	-3629
跳跃	-3630
闭目	-3631
细小的	-3632
都是被	-3633
小心翼翼的	-3634
死死的盯着	-3635
我便	-3636
眼光	-3637
要么	-3638
重视	-3639
隐蔽	-3640
了么	-3641
其上	-3642
冲虚	-3643
命令	-3644
尼亚	-3645
灰色	-3646
看出	-3647
试试	-3648
赫然	-3649
随便	-3650
一步步	-3651
借助着	-3652
必然会	-3653
每一次	-3654
的效果	-3655
目光在	-3656
转过头	-3657
也是逐渐的	-3658
去找	-3659
怀中	-3660
海域	-3661
脚尖	-3662
那枚	-3663
▁邓恩	-3664
做出了	-3665
凤清儿	-3666
原来是	-3667
的影响	-3668
索斯特	-3669
紧紧的	-3670
没有一点	-3671
没有问题	-3672
目光转向	-3673
一百	-3674
三名	-3675
上首	-3676
使得	-3677
帮我	-3678
往下	-3679
担忧	-3680
温暖	-3681
现身	-3682
记载	-3683
走廊	-3684
也算是	-3685
他能够	-3686
告诉我	-3687
萧炎在	-3688
这个世界	-3689
一半	-3690
一招	-3691
夫斯	-3692
打败	-3693
本质	-3694
水手	-3695
相应	-3696
乌特拉	-3697
夫斯基	-3698
目光的	-3699
过来的	-3700
乌特拉夫斯基	-3701
帕列斯索罗亚斯德	-3702
一击	-3703
减弱	-3704
咒文	-3705
开去	-3706
成熟	-3707
灰袍	-3708
郑重	-3709
厄难毒体	-3710
若有所思地	-3711
夏洛克莫里亚蒂	-3712
之极	-3713
了揉	-3714
几名	-3715
双脚	-3716
大声	-3717
大小	-3718
学生	-3719
料到	-3720
祭司	-3721
达克	-3722
陀舍	-3723
▁见状	-3724
了将近	-3725
仿佛在	-3726
又一个	-3727
唯一性	-3728
无疑是	-3729
的情报	-3730
让自己	-3731
起一抹	-3732
慕骨老人	-3733
青铜长桌	-3734
源源不断的	-3735
一面	-3736
人群	-3737
代罚	-3738
单片	-3739
干净	-3740
弗莱	-3741
您的	-3742
数十	-3743
星空	-3744
疼痛	-3745
熟悉的	-3746
莫天行	-3747
心理炼金会	-3748
娇躯	-3749
往往	-3750
抬手	-3751
特点	-3752
神情	-3753
落地	-3754
让它	-3755
先是一	-3756
外面的	-3757
揉了揉	-3758
的少年	-3759
的眼眸	-3760
神秘的	-3761
见到萧炎	-3762
一振	-3763
众位	-3764
传送	-3765
伤口	-3766
壁画	-3767
本就	-3768
没人	-3769
结局	-3770
药师	-3771
那条	-3772
丘纳斯	-3773
的修炼	-3774
的情绪	-3775
一点也不	-3776
▁(	-3777
一身	-3778
但那	-3779
提炼	-3780
现金	-3781
用了	-3782
记住	-3783
赞美	-3784
在此刻	-3785
的内容	-3786
行了一	-3787
接下来的	-3788
菩提古树	-3789
也要	-3790
仆人	-3791
付出	-3792
军方	-3793
分析	-3794
向后	-3795
孔隙	-3796
掏出	-3797
携带	-3798
点燃	-3799
他知道	-3800
是一名	-3801
点什么	-3802
的黑袍	-3803
自语道	-3804
▁面对着	-3805
这些家伙	-3806
苦笑了一声	-3807
他对	-3808
偷盗	-3809
六十	-3810
婴儿	-3811
就得	-3812
幽暗	-3813
沙发	-3814
火能	-3815
贴身	-3816
路线	-3817
追杀	-3818
隐瞒	-3819
韩雪	-3820
▁话音	-3821
了片刻	-3822
山老人	-3823
极光会	-3824
的血液	-3825
吸了口气	-3826
陀舍古帝	-3827
丈夫	-3828
上午	-3829
二楼	-3830
化成	-3831
千秋	-3832
支付	-3833
疲惫	-3834
这事	-3835
都要	-3836
了萧炎	-3837
传来的	-3838
就可以	-3839
火焰的	-3840
艾尔兰	-3841
这两个	-3842
鹜护法	-3843
为什么要	-3844
单片眼镜	-3845
▁“......	-3846
▁啪	-3847
丝绸	-3848
从其	-3849
嘶哑	-3850
好运	-3851
整齐	-3852
美人	-3853
这几	-3854
通体	-3855
默然	-3856
仅仅是	-3857
将自己	-3858
或者说	-3859
阶斗技	-3860
的那一霎	-3861
也是在此刻	-3862
从来	-3863
信心	-3864
德诺	-3865
怕是	-3866
我去	-3867
我说	-3868
打击	-3869
挑战	-3870
明明	-3871
晋入	-3872
看守	-3873
考核	-3874
连续	-3875
避免	-3876
▁说完	-3877
斗之气	-3878
着眉头	-3879
没有丝毫的	-3880
▁砰	-3881
三百	-3882
两步	-3883
再来	-3884
叹道	-3885
吸血	-3886
呓语	-3887
地冥	-3888
很大	-3889
徘徊	-3890
无尽	-3891
灰烬	-3892
莫雷	-3893
遏制	-3894
黄铜	-3895
苏尼亚	-3896
如果不是	-3897
冰凉	-3898
双臂	-3899
合适	-3900
左掌	-3901
药方	-3902
请求	-3903
跟随	-3904
▁经过	-3905
了进去	-3906
地冥蟒	-3907
塔罗牌	-3908
莫雷蒂	-3909
站了起来	-3910
不足	-3911
光点	-3912
弧度	-3913
是你	-3914
未知	-3915
肚子	-3916
高手	-3917
代罚者	-3918
北大陆	-3919
的层次	-3920
身体上	-3921
抬起头来	-3922
九幽地冥蟒	-3923
凄厉	-3924
呼啸	-3925
母神	-3926
法师	-3927
礼貌	-3928
自主	-3929
遭受	-3930
阶梯	-3931
阶段	-3932
两人的	-3933
了开来	-3934
反问道	-3935
身上的	-3936
长长的	-3937
的炼药师	-3938
乃是	-3939
了张	-3940
昨晚	-3941
监控	-3942
精纯	-3943
远离	-3944
▁做完	-3945
▁想到	-3946
▁说话	-3947
一口气	-3948
广场上	-3949
的信徒	-3950
的药材	-3951
着什么	-3952
走向了	-3953
也是能够	-3954
行了一礼	-3955
▁说到这里	-3956
青莲地心火	-3957
▁嗯	-3958
今晚	-3959
公会	-3960
宁静	-3961
帮你	-3962
开的	-3963
想来	-3964
护卫	-3965
陷阱	-3966
之内的	-3967
劳德诺	-3968
从纳戒中	-3969
绝大部分	-3970
一手	-3971
七十	-3972
主意	-3973
回想	-3974
惊恐	-3975
柳翎	-3976
漂浮	-3977
男仆	-3978
的来	-3979
祭坛	-3980
米尔	-3981
耐心	-3982
靠着	-3983
时不时	-3984
最重要	-3985
来不及	-3986
的原因	-3987
刚刚落下	-3988
收回目光	-3989
▁就在这个时候	-3990
便宜	-3991
指尖	-3992
摸了	-3993
暴怒	-3994
一方面	-3995
了几步	-3996
笑着道	-3997
那婆婆	-3998
不知不觉	-3999
!!	-4000
不着	-4001
五人	-4002
又一	-4003
圣赛	-4004
将我	-4005
流逝	-4006
老祖	-4007
耳朵	-4008
解读	-4009
钢铁	-4010
少林寺	-4011
我现在	-4012
萧炎手掌	-4013
的非凡特性	-4014
途径的序列	-4015
了这	-4016
保证	-4017
师叔	-4018
放大	-4019
斯塔	-4020
服食	-4021
深沉	-4022
电报	-4023
相继	-4024
衬衣	-4025
认知	-4026
了几分	-4027
了好几	-4028
炼药术	-4029
历史孔隙	-4030
......“	-4031
不定	-4032
他说	-4033
倒霉	-4034
名为	-4035
声势	-4036
层层	-4037
戒备	-4038
概率	-4039
的不	-4040
调整	-4041
吸血鬼	-4042
无数人	-4043
不去	-4044
了吗	-4045
多说	-4046
帮手	-4047
文字	-4048
混蛋	-4049
能让	-4050
不清楚	-4051
飞快的	-4052
五岳剑派	-4053
一顿	-4054
厚的	-4055
官方	-4056
居民	-4057
得意	-4058
拉斯	-4059
深刻	-4060
疗伤	-4061
石头	-4062
群岛	-4063
解除	-4064
越是	-4065
道路	-4066
雕像	-4067
若不是	-4068
菩提化	-4069
这种时候	-4070
了好	-4071
二是	-4072
你还	-4073
吐出	-4074
旁观	-4075
热闹	-4076
置信	-4077
耳边	-4078
锋利	-4079
之所以	-4080
教会的	-4081
的尸体	-4082
的气氛	-4083
里安娜	-4084
淡淡一笑	-4085
萧炎体内	-4086
阿里安娜	-4087
便是出现在了	-4088
深吸了一口气	-4089
也好	-4090
去做	-4091
及时	-4092
太久	-4093
很久	-4094
拜访	-4095
操控	-4096
步伐	-4097
海上	-4098
顷刻	-4099
摸了摸	-4100
看了看	-4101
药老的	-4102
黑白子	-4103
也是缓缓	-4104
与之	-4105
公爵	-4106
功夫	-4107
加刑	-4108
好吧	-4109
平衡	-4110
影像	-4111
慌乱	-4112
旧日	-4113
试探	-4114
不是太	-4115
令得人	-4116
在哪里	-4117
廷根市	-4118
▁埃姆林	-4119
只是一个	-4120
弥漫而出	-4121
萧炎便是	-4122
紧紧的盯着	-4123
不像	-4124
人家	-4125
微变	-4126
排名	-4127
斗篷	-4128
有何	-4129
森冷	-4130
▁另外	-4131
凝重的	-4132
布满着	-4133
一分	-4134
一皱	-4135
了指	-4136
他才	-4137
合拢	-4138
守护	-4139
引来	-4140
急着	-4141
斯利	-4142
看这	-4143
蔚蓝	-4144
邪神	-4145
了他的	-4146
加刑天	-4147
散发着	-4148
瓦尔特	-4149
着一个	-4150
▁可	-4151
两三	-4152
从而	-4153
刚落	-4154
小镇	-4155
怎地	-4156
我可	-4157
权柄	-4158
纤手	-4159
针对	-4160
了一种	-4161
了两秒	-4162
很快就	-4163
悄悄的	-4164
最好的	-4165
查尼斯	-4166
科尔格	-4167
老人家	-4168
而且还	-4169
补充道	-4170
这次的	-4171
了一声道	-4172
萧炎能够	-4173
30	-4174
你了	-4175
出乎	-4176
审判	-4177
怒火	-4178
没去	-4179
渐渐	-4180
狂喜	-4181
用的	-4182
那我	-4183
也不能	-4184
也并不	-4185
其中的	-4186
来得及	-4187
潜意识	-4188
的可能	-4189
的巨大	-4190
金色的	-4191
屈指一弹	-4192
远古太阳	-4193
书籍	-4194
交换	-4195
到底	-4196
单独	-4197
吟吟	-4198
嘲讽	-4199
夜晚	-4200
将你	-4201
巴顿	-4202
布提	-4203
林震	-4204
比试	-4205
派人	-4206
镑的	-4207
各种各	-4208
在他的	-4209
林震南	-4210
注意力	-4211
进一步	-4212
毫无疑问	-4213
赫密斯语	-4214
发生了什么	-4215
“0	-4216
光的	-4217
听完	-4218
唾沫	-4219
快要	-4220
我都	-4221
整体	-4222
活尸	-4223
深渊	-4224
空想	-4225
空荡	-4226
走去	-4227
遥遥	-4228
不会再	-4229
偷盗者	-4230
强者的	-4231
掌心中	-4232
斟酌着	-4233
虚古龙	-4234
20	-4235
公主	-4236
向前	-4237
啧啧	-4238
少爷	-4239
手下	-4240
拖延	-4241
散去	-4242
暗红	-4243
永恒	-4244
温和	-4245
潮水	-4246
相助	-4247
迹象	-4248
那对	-4249
飓风	-4250
他已经	-4251
星斗宗	-4252
显然是	-4253
等人的	-4254
查尼斯门	-4255
中间	-4256
之法	-4257
克制	-4258
哪些	-4259
庇佑	-4260
羽毛	-4261
虫洞	-4262
表演	-4263
长裙	-4264
骨头	-4265
骨翼	-4266
▁不等	-4267
普通人	-4268
太虚古龙	-4269
短时间内	-4270
专门	-4271
两天	-4272
告知	-4273
命的	-4274
圈子	-4275
好笑	-4276
底的	-4277
弥留	-4278
椅背	-4279
特的	-4280
码头	-4281
祂们	-4282
而坐	-4283
谁都	-4284
微不可	-4285
的脑袋	-4286
真的是	-4287
米切尔	-4288
红天使	-4289
艾弥留	-4290
涌上一抹	-4291
丘纳斯科尔格	-4292
他能	-4293
寄生	-4294
尊敬	-4295
每一	-4296
激烈	-4297
血红	-4298
透过	-4299
里斯	-4300
银白	-4301
风格	-4302
马赫	-4303
了自己	-4304
他看见	-4305
在他们	-4306
的举动	-4307
不知什么时候	-4308
一一	-4309
下次	-4310
乔治	-4311
也得	-4312
了点	-4313
划过	-4314
化的	-4315
印象	-4316
大汉	-4317
小说	-4318
引导	-4319
旁人	-4320
无穷	-4321
根根	-4322
毒宗	-4323
熟练	-4324
遗憾	-4325
那被	-4326
鬼魅	-4327
三千雷	-4328
对自己	-4329
布提斯	-4330
异火的	-4331
很清楚	-4332
徐徐的	-4333
菩提化体	-4334
隐秘组织	-4335
只会	-4336
咳嗽	-4337
废话	-4338
总结	-4339
执事	-4340
换取	-4341
生死	-4342
用力	-4343
秒钟	-4344
红月	-4345
超越	-4346
阻碍	-4347
韩家	-4348
▁药老	-4349
中年人	-4350
以一种	-4351
似乎在	-4352
夹杂着	-4353
的神奇	-4354
皱了皱	-4355
身后的	-4356
也是令得	-4357
神秘空间	-4358
萧炎这才	-4359
前的	-4360
在地	-4361
强榜	-4362
成就	-4363
治疗	-4364
特雷	-4365
皇帝	-4366
石柱	-4367
雷鸣	-4368
面人	-4369
十字架	-4370
怎么办	-4371
斗气的	-4372
模糊的	-4373
特雷茜	-4374
的成员	-4375
天府联盟	-4376
岳灵珊道	-4377
乘坐	-4378
他还	-4379
几道	-4380
屏障	-4381
径直	-4382
抱拳	-4383
摊开	-4384
族中	-4385
无息	-4386
沾染	-4387
泥土	-4388
粘稠	-4389
老鼠	-4390
▁手掌	-4391
史密斯	-4392
能够在	-4393
应该便是	-4394
无声无息	-4395
都是有些	-4396
周明	-4397
弗雷	-4398
撇嘴	-4399
数百	-4400
申请	-4401
胡须	-4402
那可	-4403
闪动	-4404
闭关	-4405
黑的	-4406
▁这样	-4407
周明瑞	-4408
栋房屋	-4409
老头子	-4410
马赫特	-4411
菩提化体涎	-4412
两条	-4413
乌云	-4414
了你	-4415
六人	-4416
冲突	-4417
升起	-4418
卡维	-4419
右掌	-4420
噗嗤	-4421
四下	-4422
图瓦	-4423
尤尼	-4424
就有	-4425
白骨	-4426
的好	-4427
神色	-4428
高兴	-4429
加列毕	-4430
恩尤尼	-4431
所在的	-4432
指了指	-4433
一道身影	-4434
便是直接	-4435
卡维图瓦	-4436
海神权杖	-4437
眉头微皱	-4438
那所谓的	-4439
▁对	-4440
▁没	-4441
以来	-4442
伊恩	-4443
凸显	-4444
昏迷	-4445
火热	-4446
现场	-4447
畏惧	-4448
疯子	-4449
石壁	-4450
确是	-4451
羊皮	-4452
贪婪	-4453
遥远	-4454
难度	-4455
黛眉	-4456
了几下	-4457
只剩下	-4458
在其中	-4459
怎么会	-4460
身体的	-4461
中了	-4462
冷冷	-4463
在你	-4464
平时	-4465
往上	-4466
我所	-4467
核心	-4468
风险	-4469
不属于	-4470
猎魔者	-4471
的年轻	-4472
那便是	-4473
不由自主	-4474
探索小队	-4475
这种事情	-4476
一落	-4477
不戒	-4478
为之	-4479
儿子	-4480
共同	-4481
单纯	-4482
印记	-4483
反复	-4484
室内	-4485
就此	-4486
幅度	-4487
惊异	-4488
我看	-4489
无暗	-4490
日光	-4491
皇室	-4492
说来	-4493
高峰	-4494
▁阿蒙	-4495
了几句	-4496
他心中	-4497
以他的	-4498
天妖傀	-4499
明显是	-4500
闪烁着	-4501
浮现而出	-4502
15	-4503
一拳	-4504
享受	-4505
他所	-4506
嗤嗤	-4507
大事	-4508
妈妈	-4509
活动	-4510
纯净	-4511
虔诚	-4512
说完	-4513
这就	-4514
重点	-4515
降低	-4516
韩月	-4517
高层	-4518
高温	-4519
黑衣	-4520
笑吟吟	-4521
自然也是	-4522
一握	-4523
你可	-4524
压力	-4525
名称	-4526
工匠	-4527
承诺	-4528
耳畔	-4529
进化	-4530
道人	-4531
都被	-4532
队员	-4533
雪伦	-4534
很容易	-4535
丝绸礼帽	-4536
呵呵笑道	-4537
这老家伙	-4538
风暴之主	-4539
魔兽山脉	-4540
▁贝克兰德	-4541
一副	-4542
一掌	-4543
两次	-4544
动身	-4545
抗拒	-4546
握住	-4547
整片	-4548
眼珠	-4549
第九	-4550
黑发	-4551
▁没有	-4552
危险的	-4553
小姐的	-4554
沉吟道	-4555
了一定的	-4556
微不可见	-4557
鲁恩王国	-4558
?’	-4559
之城	-4560
仪和	-4561
便能	-4562
因素	-4563
底牌	-4564
性格	-4565
敬畏	-4566
明的	-4567
琉璃	-4568
瞄了	-4569
算了	-4570
罗布	-4571
道理	-4572
伟大的	-4573
太多的	-4574
望了眼	-4575
陆大有	-4576
魔老鬼	-4577
▁这一次	-4578
安提哥努斯家族	-4579
公子	-4580
冠军	-4581
名声	-4582
告辞	-4583
家庭	-4584
我很	-4585
沿途	-4586
真神	-4587
穿越	-4588
若现	-4589
茶杯	-4590
落的	-4591
血腥	-4592
了两句	-4593
停在了	-4594
在这个	-4595
的长老	-4596
眼中的	-4597
让得人	-4598
▁天空上	-4599
▁这一刻	-4600
响彻而起	-4601
▁过	-4602
他有	-4603
公共	-4604
周遭	-4605
国王	-4606
德街	-4607
思路	-4608
悠闲	-4609
日子	-4610
树木	-4611
桌子	-4612
爷爷	-4613
看去	-4614
石碑	-4615
若隐	-4616
裂开	-4617
炽热的	-4618
的危险	-4619
的可怕	-4620
不远处的	-4621
一颗	-4622
回事	-4623
床上	-4624
律师	-4625
摊手	-4626
格拉	-4627
漂亮	-4628
说出	-4629
还算	-4630
退出	-4631
预言	-4632
不过好	-4633
又是一	-4634
岂不是	-4635
青城派	-4636
瞬间便是	-4637
若隐若现	-4638
光圈	-4639
坦然	-4640
平原	-4641
应对	-4642
感激	-4643
提高	-4644
昏暗	-4645
也不用	-4646
情况下	-4647
感受到了	-4648
没有什么	-4649
假装	-4650
冰寒	-4651
几步	-4652
击败	-4653
包围	-4654
地图	-4655
基金	-4656
大致	-4657
拇指	-4658
极限	-4659
灾难	-4660
生灵	-4661
的水	-4662
立于	-4663
聚集	-4664
背上	-4665
藏在	-4666
表达	-4667
迈克	-4668
▁那位	-4669
不过这	-4670
事情的	-4671
叹息道	-4672
大厅中	-4673
的笑道	-4674
赫然便是	-4675
一家	-4676
三道	-4677
不大	-4678
与人	-4679
先祖	-4680
冥想	-4681
半年	-4682
在于	-4683
地道	-4684
大阵	-4685
姚盛	-4686
定静	-4687
废物	-4688
抽出	-4689
无视	-4690
比赛	-4691
的古	-4692
石门	-4693
翻了	-4694
蔷薇	-4695
镖头	-4696
门外	-4697
音波	-4698
风衣	-4699
比不上	-4700
的一切	-4701
脚步声	-4702
面色也是	-4703
▁听得萧炎	-4704
三天	-4705
催眠	-4706
兵刃	-4707
半高	-4708
双腿	-4709
向他	-4710
嚣张	-4711
天啸	-4712
妹妹	-4713
干枯	-4714
废墟	-4715
成长	-4716
是那	-4717
沈云	-4718
流光	-4719
潜入	-4720
理查	-4721
的巨	-4722
红唇	-4723
纷纷	-4724
船只	-4725
花宗	-4726
语句	-4727
迟早	-4728
闪避	-4729
不会有	-4730
了一步	-4731
大主教	-4732
打开了	-4733
整个人	-4734
蛇人族	-4735
机械之心	-4736
................	-4737
▁‘	-4738
之余	-4739
冷哼	-4740
卡特	-4741
将来	-4742
摆了	-4743
等我	-4744
耳中	-4745
胡德	-4746
最上首	-4747
的描述	-4748
的道路	-4749
起来的	-4750
雷尊者	-4751
非凡材料	-4752
与其	-4753
后裔	-4754
忽地	-4755
惊呼	-4756
意见	-4757
是有	-4758
瞧瞧	-4759
衣服	-4760
言语	-4761
跟在	-4762
轮廓	-4763
这时	-4764
飘飘	-4765
一直在	-4766
凝聚成	-4767
清楚的	-4768
都将会	-4769
理查德森	-4770
书桌	-4771
交织	-4772
军情	-4773
和你	-4774
回家	-4775
天才	-4776
封锁	-4777
收起	-4778
星界	-4779
流转	-4780
盘腿	-4781
衣兜	-4782
跟上	-4783
骨骼	-4784
军情九	-4785
掌门人	-4786
的少女	-4787
究竟是	-4788
望着萧炎	-4789
▁萧炎目光	-4790
阿兹克铜哨	-4791
三世	-4792
二哥	-4793
五官	-4794
但在	-4795
信纸	-4796
冰山	-4797
学者	-4798
思德	-4799
战场	-4800
游记	-4801
烈阳	-4802
甲板	-4803
的下	-4804
罗珊	-4805
花园	-4806
轻笑	-4807
这份	-4808
靠拢	-4809
面相	-4810
修炼室	-4811
深深的	-4812
的一个	-4813
罗思德	-4814
一口鲜血	-4815
暴掠而去	-4816
继续说道	-4817
若是能够	-4818
血之上将	-4819
让克莱恩	-4820
都是能够	-4821
问了一句	-4822
一沉	-4823
七品	-4824
你去	-4825
便可	-4826
停滞	-4827
允许	-4828
妖圣	-4829
往前	-4830
急促	-4831
手上	-4832
斗者	-4833
无可	-4834
最高	-4835
白衣	-4836
脚下	-4837
莫大	-4838
轻敲	-4839
长发	-4840
长相	-4841
马灯	-4842
了一番	-4843
弥漫着	-4844
摇头道	-4845
的一处	-4846
的信息	-4847
这便是	-4848
什么东西	-4849
半个小时	-4850
抬起右手	-4851
不该	-4852
为难	-4853
优秀	-4854
佩服	-4855
办到	-4856
千年	-4857
居住	-4858
庆幸	-4859
暗示	-4860
柔软	-4861
正确	-4862
萧宁	-4863
防备	-4864
你们的	-4865
分钟后	-4866
我只是	-4867
根本就	-4868
没办法	-4869
的冲动	-4870
的嗓音	-4871
获得了	-4872
透明的	-4873
不低	-4874
传承	-4875
借口	-4876
刺激	-4877
哪位	-4878
喝酒	-4879
早有	-4880
极大	-4881
班西	-4882
留在	-4883
直至	-4884
胡乱	-4885
面包	-4886
骨灵	-4887
▁果然	-4888
到现在	-4889
接触到	-4890
盈盈道	-4891
羊皮纸	-4892
吸了一口	-4893
斗圣强者	-4894
闪掠而出	-4895
▁祂	-4896
不休	-4897
之蛇	-4898
别说	-4899
半是	-4900
反射	-4901
形态	-4902
暴退	-4903
最强	-4904
眸中	-4905
给出	-4906
群人	-4907
那只	-4908
醒来	-4909
铁青	-4910
▁而在	-4911
之外的	-4912
取出一	-4913
在内院	-4914
小小的	-4915
更何况	-4916
未来号	-4917
本身的	-4918
的发现	-4919
乔治三世	-4920
环顾了一圈	-4921
”!	-4922
光泽	-4923
克伦	-4924
对待	-4925
怒道	-4926
总部	-4927
恍惚	-4928
摆手	-4929
的门	-4930
红润	-4931
躯体	-4932
还得	-4933
那副	-4934
你怎么	-4935
干什么	-4936
找不到	-4937
的女子	-4938
祖千秋	-4939
第六百	-4940
灰白雾气	-4941
之辈	-4942
乌黯	-4943
便即	-4944
冷火	-4945
分辨	-4946
地心	-4947
断了	-4948
灿烂	-4949
秘法	-4950
苦涩	-4951
领头	-4952
骷髅	-4953
▁可是	-4954
不出来	-4955
伯克伦	-4956
或许是	-4957
抵达了	-4958
拍卖会	-4959
放弃了	-4960
无面人	-4961
的仪式	-4962
绿色的	-4963
见到了	-4964
都不是	-4965
地魔老鬼	-4966
察觉到了	-4967
等人也是	-4968
补了一句	-4969
伯克伦德街	-4970
下面	-4971
与你	-4972
压低	-4973
喊道	-4974
探出	-4975
玩笑	-4976
瞬息	-4977
簇拥	-4978
震慑	-4979
武林中	-4980
的名字	-4981
而不是	-4982
顷刻间	-4983
不用担心	-4984
乌黯魔狼	-4985
旋即一道	-4986
这方面的	-4987
目光的注视下	-4988
二老	-4989
何必	-4990
又道	-4991
口袋	-4992
容纳	-4993
昨天	-4994
末日	-4995
清除	-4996
点点	-4997
略有	-4998
示意	-4999
约定	-5000
级的	-5001
通知	-5002
避开	-5003
金发	-5004
魂崖	-5005
出现于	-5006
消失了	-5007
的背影	-5008
轰隆隆	-5009
选择了	-5010
收回视线	-5011
有着不少	-5012
望了一眼	-5013
这个问题	-5014
难以遏制	-5015
12	-5016
▁以	-5017
大变	-5018
妙的	-5019
层的	-5020
山顶	-5021
拱了	-5022
桃花	-5023
毒素	-5024
火灵	-5025
皱起	-5026
罢了	-5027
豁然	-5028
顶尖	-5029
顶端	-5030
▁两人	-5031
亵渎之	-5032
任何人	-5033
听见了	-5034
掌握了	-5035
的目标	-5036
让我们	-5037
该死的	-5038
动了一下	-5039
坐了下来	-5040
鹰山老人	-5041
传递	-5042
但又	-5043
侍女	-5044
借此	-5045
倾听	-5046
剑招	-5047
头上	-5048
少许	-5049
慕兰	-5050
港口	-5051
牧羊	-5052
玄阶	-5053
真相	-5054
神父	-5055
西斯	-5056
▁听着	-5057
下方的	-5058
之后的	-5059
五岳派	-5060
其身体	-5061
受到了	-5062
将他们	-5063
尖锐的	-5064
就这样	-5065
是何等	-5066
最后一	-5067
木高峰	-5068
丹青	-5069
受了	-5070
学习	-5071
宝藏	-5072
怀表	-5073
手腕	-5074
投向	-5075
无力	-5076
的三	-5077
能在	-5078
谁能	-5079
逃窜	-5080
那你	-5081
骂道	-5082
骨骸	-5083
有甚么	-5084
笼罩着	-5085
那里的	-5086
面面相	-5087
转过身体	-5088
难以掩饰	-5089
九幽地冥蟒族	-5090
不止	-5091
专业	-5092
乌托	-5093
利姆	-5094
培养	-5095
大叫	-5096
小伊	-5097
执掌	-5098
提出	-5099
插手	-5100
放过	-5101
满月	-5102
百米	-5103
科恩	-5104
第十	-5105
请教	-5106
费天	-5107
起伏	-5108
镖局	-5109
阴暗	-5110
乌托邦	-5111
听到了	-5112
塔利姆	-5113
多了一	-5114
没问题	-5115
的边缘	-5116
破风声	-5117
竟然还	-5118
亵渎石板	-5119
有一定的	-5120
都是未曾	-5121
骨灵冷火	-5122
远古太阳神	-5123
争夺	-5124
他不	-5125
何种	-5126
剧痛	-5127
劲力	-5128
取下	-5129
安保	-5130
强烈	-5131
惊诧	-5132
摊了	-5133
教导	-5134
清晨	-5135
细小	-5136
统领	-5137
规模	-5138
让的	-5139
这枚	-5140
逃跑	-5141
那等	-5142
钞票	-5143
额外	-5144
驱逐	-5145
高空	-5146
默念	-5147
▁那是	-5148
停留在	-5149
先前的	-5150
别人的	-5151
得有些	-5152
悬浮在	-5153
战斗力	-5154
落在了	-5155
都无法	-5156
领域的	-5157
魔药的	-5158
邓恩史密斯	-5159
下手	-5160
不甘	-5161
低下	-5162
佛怒	-5163
列车	-5164
北方	-5165
发散	-5166
名的	-5167
坐着	-5168
复仇	-5169
天色	-5170
挥动	-5171
期间	-5172
潜力	-5173
照亮	-5174
的精	-5175
背景	-5176
轰击	-5177
驱使	-5178
为甚么	-5179
剩下的	-5180
后面的	-5181
最后在	-5182
牧羊人	-5183
相当于	-5184
铁护法	-5185
天空上那	-5186
拱了拱手	-5187
旅行笔记	-5188
萧炎身体	-5189
达克威尔	-5190
一道道目光	-5191
一剑	-5192
一大	-5193
上门	-5194
为此	-5195
凶兽	-5196
出租	-5197
地狱	-5198
妻子	-5199
平复	-5200
底部	-5201
拉着	-5202
柳眉	-5203
森白	-5204
视野	-5205
银芒	-5206
魂玉	-5207
九天尊	-5208
你不是	-5209
地回答	-5210
将它们	-5211
想不到	-5212
是一片	-5213
暗天使	-5214
职人员	-5215
这一步	-5216
!===	-5217
这么一个	-5218
、‘	-5219
严格	-5220
体表	-5221
凄惨	-5222
四面	-5223
奇斯	-5224
学徒	-5225
岁月	-5226
生机	-5227
的从	-5228
空洞	-5229
群豪	-5230
背负	-5231
腰背	-5232
萧晨	-5233
训练	-5234
追赶	-5235
霍纳	-5236
丹青生	-5237
反而是	-5238
的环境	-5239
的秘密	-5240
亵渎之牌	-5241
信使小姐	-5242
定静师太	-5243
广场之上	-5244
摆了摆手	-5245
摊了摊手	-5246
霍纳奇斯	-5247
两只	-5248
他与	-5249
他将	-5250
何等	-5251
做过	-5252
分裂	-5253
咕噜	-5254
喷出	-5255
坦顿	-5256
对其	-5257
帐篷	-5258
推开	-5259
提到	-5260
撇了	-5261
更为	-5262
梅迪	-5263
洪辰	-5264
消炎	-5265
缪尔	-5266
这小	-5267
力量的	-5268
因此而	-5269
宫殿内	-5270
梅迪奇	-5271
的声响	-5272
的房间	-5273
红手套	-5274
也不可能	-5275
天地能量	-5276
手掌一挥	-5277
永恒烈阳	-5278
亚伯拉罕家族	-5279
轻叹了一口气	-5280
侥幸	-5281
到处	-5282
已被	-5283
教团	-5284
比我	-5285
水道	-5286
然的	-5287
矛盾	-5288
荆棘	-5289
要塞	-5290
见了	-5291
部位	-5292
他自己	-5293
数不清	-5294
灵教团	-5295
的女士	-5296
的距离	-5297
圣赛缪尔	-5298
自其体内	-5299
艾弥留斯	-5300
萧炎笑了笑	-5301
伦纳德米切尔	-5302
......”“	-5303
之际	-5304
传闻	-5305
地点	-5306
寻求	-5307
怒吼	-5308
惨叫	-5309
收缩	-5310
月城	-5311
欣慰	-5312
正装	-5313
烛离	-5314
牢牢	-5315
穴道	-5316
站立	-5317
老生	-5318
血潭	-5319
表明	-5320
触碰	-5321
钻进	-5322
预感	-5323
一定要	-5324
不自觉	-5325
了一位	-5326
结束了	-5327
现在的他	-5328
隐隐有着	-5329
面面相觑	-5330
不变	-5331
为人	-5332
他和	-5333
倩影	-5334
做好	-5335
卡平	-5336
原初	-5337
后悔	-5338
哗啦	-5339
寻思	-5340
映照	-5341
死寂	-5342
汹涌	-5343
白眼	-5344
腐蚀	-5345
被那	-5346
触手	-5347
议事	-5348
蹬蹬	-5349
适才	-5350
途中	-5351
遇上	-5352
隐士	-5353
."”	-5354
了一条	-5355
剩余的	-5356
半空中	-5357
彻彻底	-5358
文德尔	-5359
江湖上	-5360
目光扫	-5361
暴掠而出	-5362
渗透而出	-5363
▁等	-5364
不停	-5365
兜帽	-5366
城墙	-5367
寒芒	-5368
小脸	-5369
打着	-5370
提及	-5371
目送	-5372
直奔	-5373
穆蛇	-5374
融化	-5375
躬身	-5376
邪恶	-5377
面无	-5378
黑擎	-5379
▁一个	-5380
▁很快	-5381
▁薰儿	-5382
▁这里	-5383
与他们	-5384
如此之	-5385
第五百	-5386
走到了	-5387
远处的	-5388
都不会	-5389
▁这样的	-5390
了他一眼	-5391
蔓延而出	-5392
黑夜教会	-5393
叹息了一声	-5394
将目光投向	-5395
不屑	-5396
五百	-5397
全场	-5398
凉气	-5399
匹练	-5400
卡尔	-5401
局势	-5402
心思	-5403
我对	-5404
曼诺	-5405
桃根	-5406
毒蛇	-5407
沉思	-5408
深深	-5409
王室	-5410
血迹	-5411
行出	-5412
身处	-5413
雪白	-5414
黄色	-5415
齐声	-5416
交给我	-5417
在自己	-5418
斯利尔	-5419
猛然间	-5420
的对手	-5421
莱曼诺	-5422
走出了	-5423
萨斯利尔	-5424
所有人都是	-5425
轻轻颔首道	-5426
-,	-5427
▁又	-5428
丫头	-5429
交谈	-5430
你就	-5431
倒飞	-5432
外表	-5433
屁股	-5434
很强	-5435
掠出	-5436
掠去	-5437
是啊	-5438
第八	-5439
职业	-5440
金石	-5441
龙兽	-5442
▁第二	-5443
也无法	-5444
你自己	-5445
大声道	-5446
完全的	-5447
普通的	-5448
注意到	-5449
然后在	-5450
的痕迹	-5451
简单的	-5452
莲心火	-5453
▁安德森	-5454
佛怒火莲	-5455
加列家族	-5456
对于萧炎	-5457
灵魂感知	-5458
圣赛缪尔教堂	-5459
一段	-5460
不怕	-5461
参赛	-5462
吃了	-5463
图铎	-5464
堂娜	-5465
大了	-5466
大手	-5467
才会	-5468
接连	-5469
摸着	-5470
束缚	-5471
生怕	-5472
维斯	-5473
肉眼	-5474
躺在	-5475
辛苦	-5476
迷茫	-5477
逃脱	-5478
那团	-5479
酒杯	-5480
青阳	-5481
先前那	-5482
北龙王	-5483
如果你	-5484
张了张	-5485
心中一	-5486
忘记了	-5487
第二百	-5488
能够将	-5489
被称为	-5490
解释道	-5491
越发的	-5492
▁说话间	-5493
开口问道	-5494
药鼎之内	-5495
袖袍一挥	-5496
使徒	-5497
古神	-5498
各个	-5499
合理	-5500
四名	-5501
头疼	-5502
崇拜	-5503
打听	-5504
投入	-5505
是要	-5506
月媚	-5507
未免	-5508
树枝	-5509
梦中	-5510
毒斑	-5511
淡化	-5512
深邃	-5513
眼皮	-5514
细的	-5515
缩小	-5516
蒸发	-5517
这幅	-5518
那本	-5519
了开去	-5520
地想着	-5521
投向了	-5522
的出现	-5523
皱眉道	-5524
若非是	-5525
欲望使徒	-5526
环顾一圈	-5527
面无表情	-5528
罗思德群岛	-5529
,"	-5530
▁与	-5531
一方	-5532
倾洒	-5533
办公	-5534
四位	-5535
就被	-5536
常人	-5537
待会	-5538
懂得	-5539
戏谑	-5540
我这	-5541
打得	-5542
收到	-5543
玛丽	-5544
突地	-5545
窃窃	-5546
联军	-5547
胜利	-5548
赶路	-5549
逃离	-5550
错了	-5551
门下	-5552
隔绝	-5553
韩闲	-5554
骨幽	-5555
成功的	-5556
灵之虫	-5557
的世界	-5558
药鼎之中	-5559
莎伦小姐	-5560
都是有着	-5561
都是在此刻	-5562
16	-5563
’’	-5564
。。	-5565
一滴	-5566
不受	-5567
到来	-5568
头皮	-5569
始祖	-5570
并无	-5571
戴上	-5572
抵抗	-5573
摧毁	-5574
炸响	-5575
焚烧	-5576
砸在	-5577
脑子	-5578
腐烂	-5579
要想	-5580
回来了	-5581
安静地	-5582
火长老	-5583
的材料	-5584
着萧炎	-5585
翻了翻	-5586
艾辛格	-5587
▁岳不群	-5588
▁这就是	-5589
冰山中将	-5590
地回应道	-5591
片刻之后	-5592
一缩	-5593
个人	-5594
也太	-5595
修习	-5596
停下	-5597
包含	-5598
大伙	-5599
夸张	-5600
威严	-5601
怨毒	-5602
桃枝	-5603
眉毛	-5604
瞥了	-5605
类型	-5606
羡慕	-5607
而当	-5608
落入	-5609
震动	-5610
马甲	-5611
一阵阵	-5612
声音中	-5613
控制住	-5614
没必要	-5615
着眼睛	-5616
笑笑道	-5617
赛琳娜	-5618
阿蒙的	-5619
黑皇宗	-5620
中年男子	-5621
转而问道	-5622
各种各样的	-5623
的神奇物品	-5624
一踏	-5625
了耸	-5626
偷偷	-5627
出云	-5628
古妖	-5629
埃德	-5630
密修	-5631
封信	-5632
尼根	-5633
师伯	-5634
拦住	-5635
沟通	-5636
留着	-5637
薄的	-5638
路灯	-5639
通往	-5640
那件	-5641
霸道	-5642
靠住	-5643
鳞片	-5644
?!”	-5645
并不会	-5646
忽听得	-5647
是一件	-5648
窃窃私	-5649
的感觉到	-5650
这个名字	-5651
或许是因为	-5652
▁这个过程中	-5653
▁有	-5654
一指	-5655
侵入	-5656
内功	-5657
出生	-5658
到极	-5659
喜悦	-5660
巧合	-5661
往后	-5662
得不	-5663
心动	-5664
打扮	-5665
日月	-5666
来找	-5667
澎湃	-5668
睡觉	-5669
赐予	-5670
这会	-5671
那从	-5672
也可以	-5673
咬着牙	-5674
成功了	-5675
的半神	-5676
的念头	-5677
睁开了	-5678
短暂的	-5679
▁感受着	-5680
不管如何	-5681
原始月亮	-5682
炼制丹药	-5683
自然便是	-5684
难以置信	-5685
雪伦夫人	-5686
克莱恩无声	-5687
马赫特议员	-5688
不已	-5689
丝丝	-5690
丰收	-5691
何时	-5692
却不	-5693
处境	-5694
定闲	-5695
往外	-5696
慈善	-5697
拉开	-5698
族纹	-5699
是最	-5700
有用	-5701
来历	-5702
比他	-5703
着他	-5704
稍稍	-5705
边的	-5706
青鸾	-5707
▁这般	-5708
他们在	-5709
你若是	-5710
携带着	-5711
的大厅	-5712
看不见	-5713
知道的	-5714
考虑到	-5715
耸了耸	-5716
说起来	-5717
这可是	-5718
这种事	-5719
魔毒斑	-5720
大地母神	-5721
心理医生	-5722
海盗将军	-5723
虚无空间	-5724
路德维尔	-5725
的摇了摇头	-5726
一柄	-5727
之位	-5728
之墙	-5729
假的	-5730
几年	-5731
刺杀	-5732
响指	-5733
头部	-5734
形容	-5735
最大	-5736
没做	-5737
稍微	-5738
而成	-5739
身法	-5740
金镑	-5741
顺手	-5742
也只是	-5743
产生了	-5744
在中州	-5745
就看见	-5746
我没有	-5747
阶魔兽	-5748
窃窃私语	-5749
紫色火焰	-5750
米特尔家族	-5751
轻吐了一口气	-5752
从此	-5753
华丽	-5754
危机	-5755
召集	-5756
圣徽	-5757
宝贝	-5758
射出	-5759
尤其	-5760
平息	-5761
循环	-5762
方便	-5763
方言	-5764
深蓝	-5765
的她	-5766
眼力	-5767
而退	-5768
耽搁	-5769
致命	-5770
输了	-5771
隐匿	-5772
高高	-5773
默尔	-5774
▁在这	-5775
不容易	-5776
严重的	-5777
内心的	-5778
古青阳	-5779
对萧炎	-5780
快速的	-5781
成功率	-5782
时代的	-5783
特殊的	-5784
石台上	-5785
而就在	-5786
褐色的	-5787
要知道	-5788
这也是	-5789
那时候	-5790
却是见到	-5791
萧炎脸色	-5792
▁嘉德丽雅	-5793
古赫密斯语	-5794
求推荐票月票	-5795
不堪	-5796
之所	-5797
力气	-5798
增加	-5799
席位	-5800
弯腰	-5801
当做	-5802
我又	-5803
抹去	-5804
拼命	-5805
明确	-5806
是被	-5807
本地	-5808
火海	-5809
熏儿	-5810
融入	-5811
诚恳	-5812
路上	-5813
那天	-5814
那姓	-5815
一条条	-5816
了下道	-5817
出一个	-5818
大多数	-5819
相当的	-5820
眨眼间	-5821
解决了	-5822
轻易的	-5823
响了起来	-5824
这片天地	-5825
也在	-5826
事后	-5827
交锋	-5828
仰天	-5829
伊莲	-5830
分离	-5831
只听	-5832
可怜	-5833
哪有	-5834
坐到	-5835
实验	-5836
帝都	-5837
年代	-5838
得太	-5839
抵挡	-5840
提过	-5841
晚餐	-5842
暗暗	-5843
极强	-5844
树林	-5845
格莱	-5846
母树	-5847
没了	-5848
火光	-5849
燕尾	-5850
积累	-5851
立即	-5852
组成	-5853
美的	-5854
脸皮	-5855
若有	-5856
衡山	-5857
踏着	-5858
长久	-5859
▁忽然	-5860
上了一	-5861
倒也是	-5862
前方的	-5863
放心吧	-5864
穿黑色	-5865
都是会	-5866
出云帝国	-5867
贴身男仆	-5868
辟邪剑谱	-5869
脸庞上也是	-5870
他会	-5871
凌乱	-5872
剑尖	-5873
动人	-5874
卡拉	-5875
咔嚓	-5876
四百	-5877
声望	-5878
处在	-5879
夫妇	-5880
对话	-5881
技巧	-5882
是从	-5883
是以	-5884
木偶	-5885
来临	-5886
沉眠	-5887
沉稳	-5888
清秀	-5889
潜藏	-5890
玉盒	-5891
白袍	-5892
等你	-5893
虚影	-5894
认出	-5895
讥讽	-5896
起居	-5897
跳动	-5898
车厢	-5899
远去	-5900
适应	-5901
道道	-5902
也只得	-5903
了十几	-5904
了回去	-5905
原本的	-5906
散发出	-5907
有不少	-5908
格莱林	-5909
的人物	-5910
的身形	-5911
的魔兽	-5912
认真地	-5913
不得不说	-5914
为什么不	-5915
也是变得	-5916
占卜语句	-5917
周围那些	-5918
微微一皱	-5919
你会	-5920
便在	-5921
八方	-5922
击中	-5923
异样	-5924
总之	-5925
我只	-5926
放眼	-5927
无边	-5928
星之	-5929
是不	-5930
王子	-5931
的说	-5932
腹诽	-5933
自称	-5934
踏入	-5935
黄钟	-5936
▁它们	-5937
他没有	-5938
你现在	-5939
再没有	-5940
声响起	-5941
的姿态	-5942
的霎那	-5943
给自己	-5944
一道人影	-5945
微微一怔	-5946
一震	-5947
乃至	-5948
了三	-5949
光影	-5950
凤凰	-5951
坦白	-5952
声中	-5953
大学	-5954
夭夜	-5955
妈的	-5956
惊慌	-5957
报复	-5958
棘手	-5959
沙铁	-5960
洪家	-5961
漫天	-5962
琥乾	-5963
男士	-5964
破解	-5965
老子	-5966
踏出	-5967
这张	-5968
’、‘	-5969
他倒是	-5970
冰冷的	-5971
十分钟	-5972
的地位	-5973
的部分	-5974
科恩黎	-5975
空荡荡	-5976
这么说	-5977
▁第一千	-5978
他的身体	-5979
便是对着	-5980
欲望母树	-5981
格罗塞尔游记	-5982
做到	-5983
半天	-5984
外人	-5985
属下	-5986
木门	-5987
某位	-5988
灰尘	-5989
灵智	-5990
独自	-5991
破裂	-5992
祷告	-5993
讲述	-5994
那在	-5995
一个不	-5996
今天的	-5997
发出了	-5998
小兄弟	-5999
弥漫的	-6000
扮演法	-6001
的线索	-6002
而成的	-6003
颜色的	-6004
黄钟公	-6005
旋即便是	-6006
旋即目光	-6007
林平之道	-6008
睁开眼睛	-6009
萧炎面前	-6010
贝克兰德的	-6011
▁做完这一切	-6012
50	-6013
一趟	-6014
不禁	-6015
不绝	-6016
古典	-6017
回合	-6018
实现	-6019
尾巴	-6020
师姊	-6021
微弱	-6022
快若	-6023
战圈	-6024
无需	-6025
日的	-6026
暴冲	-6027
温柔	-6028
绚丽	-6029
自杀	-6030
跟我	-6031
金钱	-6032
闷响	-6033
▁看着	-6034
了一秒	-6035
凭借着	-6036
发生了	-6037
可能是	-6038
后续的	-6039
尝试着	-6040
的异火	-6041
目的地	-6042
第三百	-6043
返回了	-6044
大多都是	-6045
所有人的	-6046
所蕴含的	-6047
无形火焰	-6048
神话生物	-6049
身形一闪	-6050
辟邪剑法	-6051
的灵魂力量	-6052
—0	-6053
一抖	-6054
中午	-6055
冷喝	-6056
可比	-6057
咬了	-6058
忐忑	-6059
掩盖	-6060
文件	-6061
方法	-6062
杂物	-6063
浏览	-6064
牵扯	-6065
珍贵	-6066
聚合	-6067
迈步	-6068
阴谋	-6069
▁过了	-6070
也知道	-6071
他却是	-6072
他发现	-6073
仪式的	-6074
出什么	-6075
另外一	-6076
奇迹师	-6077
第三更	-6078
要不然	-6079
过程里	-6080
附近的	-6081
也是迅速	-6082
公共马车	-6083
怎么回事	-6084
斑驳长桌	-6085
方证大师	-6086
晋升序列	-6087
瞟了一眼	-6088
让得他们	-6089
了一口唾沫	-6090
不让	-6091
与我	-6092
于他	-6093
亲眼	-6094
先行	-6095
反对	-6096
古朴	-6097
在她	-6098
家人	-6099
敏捷	-6100
是想	-6101
狮王	-6102
神圣	-6103
竭力	-6104
红衣	-6105
翻身	-6106
老板	-6107
行李	-6108
被其	-6109
躲在	-6110
软帽	-6111
追逐	-6112
银牙	-6113
阵容	-6114
面子	-6115
预备	-6116
龙凰	-6117
也并未	-6118
伊丽莎	-6119
凄厉的	-6120
告诉他	-6121
因为这	-6122
岳先生	-6123
希望能	-6124
慕青鸾	-6125
我之前	-6126
我倒是	-6127
灵魂体	-6128
真实的	-6129
而现在	-6130
两道身影	-6131
半晌之后	-6132
尼根公爵	-6133
撇了撇嘴	-6134
耸了耸肩	-6135
萧炎倒是	-6136
狠狠的对着	-6137
万一	-6138
不远	-6139
事实	-6140
人格	-6141
分散	-6142
啤酒	-6143
小友	-6144
微动	-6145
梦想	-6146
烈焰	-6147
草药	-6148
雷云	-6149
顺便	-6150
了一次	-6151
以至于	-6152
低低的	-6153
多大的	-6154
对于这	-6155
并不能	-6156
找了个	-6157
特别是	-6158
的问道	-6159
三位长老	-6160
不着痕迹	-6161
军情九处	-6162
冲着萧炎	-6163
弗兰克李	-6164
灵性之墙	-6165
秘偶大师	-6166
这般模样	-6167
一见	-6168
一试	-6169
不肯	-6170
之情	-6171
前十	-6172
各处	-6173
墨家	-6174
客人	-6175
对她	-6176
少数	-6177
庄主	-6178
床榻	-6179
应付	-6180
树干	-6181
欣赏	-6182
玄黄	-6183
破风	-6184
稚嫩	-6185
老怪	-6186
骚动	-6187
▁盈盈	-6188
东龙岛	-6189
我需要	-6190
的结果	-6191
轻飘飘	-6192
问题的	-6193
手掌一握	-6194
爆裂而开	-6195
白发老者	-6196
空间虫洞	-6197
诡秘之主	-6198
身形便是	-6199
露出一抹	-6200
克莱恩在心里	-6201
举起	-6202
代替	-6203
伯特	-6204
凶手	-6205
号称	-6206
地域	-6207
基于	-6208
士兵	-6209
安宁	-6210
尽是	-6211
挑衅	-6212
更好	-6213
汗水	-6214
熊熊	-6215
的图	-6216
紧随	-6217
而非	-6218
范凌	-6219
踪迹	-6220
陆续	-6221
香味	-6222
一些人	-6223
一部分	-6224
也是会	-6225
众人的	-6226
充满了	-6227
向萧炎	-6228
吸引力	-6229
有多少	-6230
甚至连	-6231
笑容道	-6232
紫晶翼	-6233
若是再	-6234
造成的	-6235
也并非是	-6236
却依然是	-6237
年轻一辈	-6238
无奈的道	-6239
格莱林特	-6240
萧炎一怔	-6241
密密麻麻的	-6242
一月	-6243
万蝎	-6244
也算	-6245
佩戴	-6246
千万	-6247
印结	-6248
反馈	-6249
学长	-6250
工厂	-6251
怪异	-6252
截然	-6253
提议	-6254
波特	-6255
湖泊	-6256
烛坤	-6257
熊战	-6258
男性	-6259
腰间	-6260
自其	-6261
萧潇	-6262
行事	-6263
银行	-6264
飘荡	-6265
麻木	-6266
不能再	-6267
了一把	-6268
尊敬的	-6269
是否有	-6270
留下的	-6271
停了下来	-6272
哼了一声	-6273
四面八方	-6274
空间裂缝	-6275
▁突如其来的	-6276
专注	-6277
凰天	-6278
动弹	-6279
口吻	-6280
大喜	-6281
大涨	-6282
对准	-6283
少侠	-6284
未做	-6285
窥秘	-6286
给她	-6287
胸前	-6288
色泽	-6289
诞生	-6290
跟你	-6291
一根根	-6292
了一片	-6293
产生的	-6294
会出现	-6295
停止了	-6296
出现时	-6297
嗓音道	-6298
天冥宗	-6299
并不想	-6300
忽然间	-6301
抓住了	-6302
星斗皇	-6303
有资格	-6304
甚至是	-6305
的尽头	-6306
皆是一	-6307
看到了	-6308
第七百	-6309
能量的	-6310
落到了	-6311
超过了	-6312
还需要	-6313
伊丽莎白	-6314
安保公司	-6315
弥漫而开	-6316
▁令狐冲道	-6317
在加玛帝国	-6318
琉璃莲心火	-6319
紫晶翼狮王	-6320
轻叹了一声	-6321
”’	-6322
▁大	-6323
乃伊	-6324
体型	-6325
体的	-6326
傍晚	-6327
出发	-6328
力道	-6329
境界	-6330
学校	-6331
尔根	-6332
应道	-6333
想道	-6334
所见	-6335
武当	-6336
汇报	-6337
淡黄	-6338
由此	-6339
真气	-6340
眨了	-6341
练习	-6342
群雄	-6343
街上	-6344
阁主	-6345
首次	-6346
修长的	-6347
加列奥	-6348
告诉你	-6349
木乃伊	-6350
染上了	-6351
的人群	-6352
的手段	-6353
要不要	-6354
▁他随即	-6355
克莱恩和	-6356
冷笑一声	-6357
脸庞之上	-6358
莫大先生	-6359
那巨大的	-6360
在萧炎身上	-6361
的非凡能力	-6362
咽了一口唾沫	-6363
☆☆	-6364
从他	-6365
仓库	-6366
以上	-6367
优势	-6368
光之	-6369
关于	-6370
固然	-6371
安慰	-6372
师哥	-6373
心道	-6374
承认	-6375
探测	-6376
早餐	-6377
服用	-6378
管理	-6379
若无	-6380
许愿	-6381
这三	-6382
隐患	-6383
鲁莽	-6384
一个月	-6385
很多人	-6386
得到的	-6387
我刚才	-6388
来源于	-6389
灰白的	-6390
疗伤药	-6391
的一种	-6392
竟然会	-6393
诡法师	-6394
谁知道	-6395
过去的	-6396
三千雷动	-6397
不是那么	-6398
也终于是	-6399
笑了笑道	-6400
纳戒之中	-6401
转过身来	-6402
微不可见地	-6403
不说	-6404
优雅	-6405
冲儿	-6406
刹那	-6407
削瘦	-6408
动用	-6409
咧嘴	-6410
完了	-6411
得知	-6412
感情	-6413
梅高	-6414
欧丝	-6415
清理	-6416
烙印	-6417
直直	-6418
红茶	-6419
绽放	-6420
自家	-6421
自是	-6422
药剂	-6423
赢家	-6424
起的	-6425
辰闲	-6426
那扇	-6427
难免	-6428
高台	-6429
高速	-6430
东拜朗	-6431
必要的	-6432
瞄了眼	-6433
程度上	-6434
紧握着	-6435
维尔杜	-6436
这么久	-6437
变得异常	-6438
在半空中	-6439
心中也是	-6440
想了想道	-6441
梅高欧丝	-6442
盯着萧炎	-6443
云岚宗弟子	-6444
罗塞尔日记	-6445
不下	-6446
中级	-6447
倾向	-6448
匕首	-6449
区的	-6450
卷烟	-6451
地讲	-6452
妩媚	-6453
妮子	-6454
小小	-6455
尚还	-6456
平和	-6457
想过	-6458
投射	-6459
无聊	-6460
棺材	-6461
概念	-6462
渠道	-6463
然大	-6464
福德	-6465
稀少	-6466
紫云	-6467
葡萄	-6468
虚子	-6469
西北	-6470
重叠	-6471
铠甲	-6472
间隔	-6473
院长	-6474
集体	-6475
额角	-6476
008	-6477
▁不知	-6478
一句话	-6479
了两步	-6480
任教主	-6481
在一旁	-6482
在胸口	-6483
大伙儿	-6484
时之虫	-6485
那我们	-6486
云岚宗的	-6487
修炼状态	-6488
克莱恩又	-6489
哈哈大笑	-6490
喝声落下	-6491
在黑角域	-6492
斯特福德	-6493
最后化为	-6494
萧炎嘴角	-6495
克莱恩没有	-6496
▁见到这一幕	-6497
眼中掠过一抹	-6498
▁萧炎微微点头	-6499
为止	-6500
之月	-6501
云层	-6502
他从	-6503
体验	-6504
余光	-6505
你又	-6506
凌影	-6507
双目	-6508
咕哝	-6509
奔跑	-6510
将手	-6511
少量	-6512
忍耐	-6513
急退	-6514
恩怨	-6515
斯敏	-6516
日常	-6517
时针	-6518
晶卡	-6519
熄灭	-6520
狠辣	-6521
的前	-6522
笔直	-6523
而至	-6524
说到	-6525
这不	-6526
高背	-6527
一丝丝	-6528
了一跳	-6529
我也不	-6530
泰山派	-6531
燕尾服	-6532
组成的	-6533
这一招	-6534
青灵丹	-6535
▁小医仙	-6536
关键时刻	-6537
暴射而去	-6538
这种情况	-6539
那个时候	-6540
便走出现在了	-6541
伯格	-6542
光幕	-6543
利马	-6544
反噬	-6545
发麻	-6546
城的	-6547
外出	-6548
情感	-6549
把手	-6550
抢夺	-6551
更强	-6552
桃实	-6553
火苗	-6554
王尘	-6555
生气	-6556
眼里	-6557
着头	-6558
纸鹤	-6559
跟踪	-6560
过得	-6561
这本	-6562
邪异	-6563
部门	-6564
高度	-6565
万蝎门	-6566
上面的	-6567
于尔根	-6568
从萧炎	-6569
修炼的	-6570
唯一的	-6571
场中的	-6572
将这些	-6573
将那些	-6574
的视线	-6575
自己在	-6576
赤红的	-6577
他自然是	-6578
抬起脑袋	-6579
的望着萧炎	-6580
的魔药配方	-6581
萧炎的目光	-6582
太虚古龙一族	-6583
一挑	-6584
人造	-6585
倒退	-6586
反倒	-6587
四步	-6588
地带	-6589
安抚	-6590
我得	-6591
整座	-6592
火龙	-6593
爱好	-6594
相撞	-6595
碎石	-6596
自信	-6597
荡漾	-6598
连他	-6599
透露	-6600
遗忘	-6601
不断地	-6602
天时间	-6603
惊人的	-6604
星之杖	-6605
班西港	-6606
的场景	-6607
的精神	-6608
看不到	-6609
看清楚	-6610
不知为何	-6611
绯红之月	-6612
越来越近	-6613
有什么事情	-6614
炼药师公会	-6615
斯特福德子爵	-6616
苦笑着摇了摇头	-6617
!“	-6618
仆役	-6619
侧方	-6620
公寓	-6621
剩下	-6622
后期	-6623
吐槽	-6624
大狗	-6625
好事	-6626
很长	-6627
得了	-6628
怔怔	-6629
我没	-6630
救赎	-6631
整理	-6632
明日	-6633
残余	-6634
洞府	-6635
流程	-6636
涨红	-6637
淬炼	-6638
灵液	-6639
白纸	-6640
礼服	-6641
而不	-6642
药力	-6643
规避	-6644
警官	-6645
青红	-6646
领着	-6647
他们都	-6648
是如此	-6649
的血脉	-6650
瞬间后	-6651
神灵的	-6652
而在这	-6653
为什么会	-6654
方才缓缓	-6655
简直就是	-6656
彻彻底底的	-6657
难以掩饰的	-6658
发生了什么事情	-6659
一双	-6660
下山	-6661
为主	-6662
伊康	-6663
八道	-6664
分之	-6665
划破	-6666
化解	-6667
十余	-6668
坊市	-6669
好生	-6670
尔夫	-6671
山壁	-6672
左侧	-6673
悬挂	-6674
想想	-6675
曹家	-6676
极快	-6677
桌面	-6678
测验	-6679
电转	-6680
稳稳	-6681
良久	-6682
附和	-6683
附身	-6684
首位	-6685
骄傲	-6686
▁那些	-6687
不愿意	-6688
伊康瑟	-6689
众弟子	-6690
出来了	-6691
小公主	-6692
我记得	-6693
椅子上	-6694
狠狠一	-6695
的历史	-6696
的弟子	-6697
的手臂	-6698
看见的	-6699
脑海中	-6700
若是不	-6701
这方面	-6702
了自己的	-6703
升腾而起	-6704
埃德萨克	-6705
负面效果	-6706
▁灰雾之上	-6707
不慢	-6708
书房	-6709
你对	-6710
先去	-6711
十年	-6712
历练	-6713
可爱	-6714
后背	-6715
商人	-6716
天气	-6717
奈何	-6718
奶奶	-6719
小觑	-6720
工人	-6721
强调	-6722
心智	-6723
恩佐	-6724
悬赏	-6725
时期	-6726
桃干	-6727
牧师	-6728
瑞尔	-6729
的长	-6730
稳住	-6731
胡说	-6732
谈话	-6733
▁但是	-6734
▁站在	-6735
一个小	-6736
存在于	-6737
当年的	-6738
微笑着	-6739
怎么了	-6740
莫名其	-6741
询问道	-6742
远远的	-6743
我不知道	-6744
灵性直觉	-6745
萧炎有些	-6746
这个机会	-6747
令狐冲笑道	-6748
的黑袍青年	-6749
一朵	-6750
一群	-6751
也未	-6752
仅有	-6753
刺耳	-6754
墙上	-6755
增强	-6756
拯救	-6757
无线	-6758
有事	-6759
沉寂	-6760
火山	-6761
男孩	-6762
色彩	-6763
行了	-6764
衣袍	-6765
褐色	-6766
角度	-6767
调动	-6768
500	-6769
▁一道	-6770
▁他没	-6771
响起了	-6772
女弟子	-6773
日时间	-6774
的新生	-6775
第九百	-6776
脑海里	-6777
贾斯敏	-6778
这件事	-6779
都已经	-6780
阴影里	-6781
应该不会	-6782
没想到这	-6783
莱曼诺的	-6784
闪现而出	-6785
究竟是什么	-6786
萧炎不由得	-6787
集体潜意识	-6788
不解	-6789
交代	-6790
交错	-6791
仅是	-6792
保存	-6793
保密	-6794
写信	-6795
刺眼	-6796
刻意	-6797
叔叔	-6798
定要	-6799
将她	-6800
巨蛇	-6801
无关	-6802
时分	-6803
曹单	-6804
本门	-6805
标准	-6806
清澈	-6807
火浪	-6808
特伦	-6809
狂热	-6810
端起	-6811
笑话	-6812
算做	-6813
绕过	-6814
请你	-6815
转了	-6816
这名	-6817
迪西	-6818
那日	-6819
雇佣	-6820
需求	-6821
顿了	-6822
默契	-6823
另外的	-6824
只需要	-6825
奇怪的	-6826
实力的	-6827
异火榜	-6828
脱离了	-6829
这里面	-6830
魂虚子	-6831
便是再度	-6832
便是有着	-6833
微皱眉头	-6834
更进一步	-6835
疾病中将	-6836
象征符号	-6837
塔罗会成员	-6838
特伦索斯特	-6839
.”	-6840
一幕	-6841
丹城	-6842
他一	-6843
光明	-6844
后果	-6845
嘟囔	-6846
噩梦	-6847
声波	-6848
宋清	-6849
尾声	-6850
微蹙	-6851
忍着	-6852
木桩	-6853
来者	-6854
格斗	-6855
渎神	-6856
火球	-6857
相似	-6858
砰砰	-6859
纷呈	-6860
老妖	-6861
船舱	-6862
解开	-6863
陈旧	-6864
非烟	-6865
他们也	-6866
但还是	-6867
几个月	-6868
完美的	-6869
弗雷德	-6870
我希望	-6871
无声息	-6872
望了望	-6873
淡笑道	-6874
照耀下	-6875
的一位	-6876
种异火	-6877
表现出	-6878
表现得	-6879
那么多	-6880
卡特琳娜	-6881
感受着那	-6882
肯定不会	-6883
诡秘侍者	-6884
▁也就是说	-6885
实在是太过	-6886
的能量波动	-6887
阿尔弗雷德	-6888
也是忍不住的	-6889
半高丝绸礼帽	-6890
青铜长桌最上首	-6891
莱曼诺的旅行笔记	-6892
不信	-6893
不免	-6894
临时	-6895
伍德	-6896
你和	-6897
含糊	-6898
她也	-6899
居高	-6900
教派	-6901
无匹	-6902
越发	-6903
进攻	-6904
逻辑	-6905
100	-6906
“0”	-6907
▁看到	-6908
一个是	-6909
对他们	-6910
曲非烟	-6911
疑惑地	-6912
的天使	-6913
的第一	-6914
紫云翼	-6915
范围内	-6916
这一霎	-6917
银色的	-6918
顿了顿	-6919
一声冷笑	-6920
不过好在	-6921
出了一道	-6922
却是忽然	-6923
的脸庞上	-6924
眼角余光	-6925
都是变得	-6926
▁此时此刻	-6927
的盯着萧炎	-6928
体内暴涌而出	-6929
格尔曼斯帕罗的	-6930
不愿	-6931
再有	-6932
冲进	-6933
分开	-6934
分明	-6935
厉喝	-6936
又想	-6937
坍塌	-6938
城中	-6939
姿势	-6940
当着	-6941
心惊	-6942
怎能	-6943
悲伤	-6944
打断	-6945
掉落	-6946
昏黄	-6947
暴风	-6948
朦胧	-6949
火蟒	-6950
称号	-6951
绕着	-6952
羽翼	-6953
莫贝	-6954
萧媚	-6955
行的	-6956
这可	-6957
长期	-6958
陛下	-6959
魂厉	-6960
也不再	-6961
他现在	-6962
却是在	-6963
提醒道	-6964
林师弟	-6965
的那股	-6966
试一试	-6967
1000	-6968
作为一名	-6969
古代学者	-6970
地狱上将	-6971
所有人都	-6972
给人一种	-6973
黄昏隐士	-6974
如今的实力	-6975
五个	-6976
体积	-6977
匆匆	-6978
却也	-6979
叫我	-6980
团长	-6981
场地	-6982
塔丝	-6983
宗门	-6984
尔奇	-6985
德华	-6986
悠悠	-6987
惨白	-6988
慷慨	-6989
找个	-6990
晶莹	-6991
杀死	-6992
柳席	-6993
标志	-6994
残存	-6995
游戏	-6996
源头	-6997
满场	-6998
烛火	-6999
的冰	-7000
破绽	-7001
秩序	-7002
穆力	-7003
考验	-7004
赞叹	-7005
路过	-7006
连接	-7007
长长	-7008
难得	-7009
雏丹	-7010
颇有	-7011
世界的	-7012
了多少	-7013
仪琳道	-7014
夏塔丝	-7015
大人物	-7016
想办法	-7017
我认为	-7018
格外的	-7019
爱德华	-7020
的帮助	-7021
眼瞳中	-7022
韦尔奇	-7023
抬头望着	-7024
黑袍青年	-7025
不管怎么样	-7026
的青色火焰	-7027
▁萧炎笑了笑	-7028
▁三	-7029
上官	-7030
不开	-7031
不快	-7032
了她	-7033
充分	-7034
克里	-7035
免费	-7036
关闭	-7037
刚一	-7038
制的	-7039
前去	-7040
发抖	-7041
古玉	-7042
同学	-7043
和她	-7044
地将	-7045
夜色	-7046
惊雷	-7047
扩大	-7048
敲门	-7049
波及	-7050
流浪	-7051
测试	-7052
石像	-7053
等下	-7054
答复	-7055
精致	-7056
罕见	-7057
舌头	-7058
规律	-7059
走至	-7060
身高	-7061
逊色	-7062
青火	-7063
预先	-7064
▁“”	-7065
不及待	-7066
却没有	-7067
参赛者	-7068
反抗军	-7069
在面前	-7070
客气的	-7071
掌握着	-7072
的斗技	-7073
相当之	-7074
脸上的	-7075
自其中	-7076
获得的	-7077
萧炎将	-7078
要不是	-7079
克莱恩没	-7080
地开口道	-7081
有些不太	-7082
目光望向	-7083
身体表面	-7084
雄浑斗气	-7085
▁呜	-7086
▁黑	-7087
了舔	-7088
交叉	-7089
你便	-7090
你来	-7091
使劲	-7092
具有	-7093
别墅	-7094
变的	-7095
大批	-7096
天门	-7097
存活	-7098
悬崖	-7099
振动	-7100
晋级	-7101
景象	-7102
更有	-7103
未落	-7104
构建	-7105
梦魇	-7106
滑腻	-7107
由衷	-7108
留情	-7109
的两	-7110
皱纹	-7111
自顾	-7112
薪水	-7113
贴着	-7114
连连	-7115
雾霾	-7116
▁到了	-7117
▁时间	-7118
▁进入	-7119
代表着	-7120
办公室	-7121
惊天动	-7122
我不会	-7123
描述的	-7124
有问题	-7125
渎神者	-7126
满意的	-7127
议事团	-7128
还不待	-7129
▁他旋即	-7130
也是逐渐	-7131
了一下道	-7132
克里维斯	-7133
出租马车	-7134
坦白地讲	-7135
并不清楚	-7136
话音刚落	-7137
这些东西	-7138
迫不及待	-7139
六人议事团	-7140
冷笑了一声	-7141
翻了翻白眼	-7142
高序列强者	-7143
?“	-7144
▁两	-7145
一具	-7146
主宰	-7147
保留	-7148
修复	-7149
克街	-7150
加老	-7151
午餐	-7152
嘴边	-7153
嘻嘻	-7154
场合	-7155
堪称	-7156
天魔	-7157
尚未	-7158
总算	-7159
恢弘	-7160
惊醒	-7161
愣了	-7162
所幸	-7163
招惹	-7164
有趣	-7165
杯子	-7166
此地	-7167
氛围	-7168
的灯	-7169
直视	-7170
科勒	-7171
立时	-7172
脸部	-7173
自爆	-7174
花朵	-7175
见证	-7176
谷主	-7177
贡献	-7178
超级	-7179
那块	-7180
集中	-7181
颇感	-7182
齐齐	-7183
”,“	-7184
▁有了	-7185
▁由于	-7186
一样的	-7187
二十二	-7188
出一道	-7189
出色的	-7190
分之一	-7191
到了一	-7192
我自己	-7193
毛大狗	-7194
留下了	-7195
的一点	-7196
知识与	-7197
第三十	-7198
舔了舔	-7199
颇为的	-7200
一下变得	-7201
仪式魔法	-7202
便是化为	-7203
涌现一抹	-7204
陀舍古帝玉	-7205
萧炎微微一笑	-7206
个个	-7207
九品	-7208
也正	-7209
介意	-7210
他要	-7211
偶然	-7212
向来	-7213
听过	-7214
墨承	-7215
外围	-7216
定位	-7217
崩裂	-7218
幻觉	-7219
幽影	-7220
忍受	-7221
恶意	-7222
手持	-7223
换了	-7224
教训	-7225
毒气	-7226
毕岩	-7227
灰蒙	-7228
的灵	-7229
相差	-7230
维提	-7231
腾起	-7232
舞会	-7233
言喻	-7234
选拔	-7235
随身	-7236
高耸	-7237
▁一旁	-7238
▁她的	-7239
▁身体	-7240
不过在	-7241
二长老	-7242
很正常	-7243
没多久	-7244
的人类	-7245
的梦境	-7246
经历过	-7247
肯定的	-7248
背后的	-7249
额外的	-7250
麦维提	-7251
克莱恩将	-7252
岳不群道	-7253
煤气路灯	-7254
的奥黛丽	-7255
直接是将	-7256
七彩吞天蟒	-7257
目光注视下	-7258
克莱恩莫雷蒂	-7259
,’	-7260
仪清	-7261
传播	-7262
便要	-7263
催促	-7264
凌晨	-7265
吊坠	-7266
大为	-7267
左边	-7268
愉快	-7269
扫视	-7270
案子	-7271
沉闷	-7272
活跃	-7273
的白	-7274
直剑	-7275
神性	-7276
祭台	-7277
移开	-7278
罗伊	-7279
艾斯	-7280
还想	-7281
退开	-7282
预想	-7283
▁莎伦	-7284
三人的	-7285
寻常人	-7286
成一团	-7287
死死的	-7288
比尔特	-7289
气息的	-7290
没事吧	-7291
璀璨的	-7292
的动作	-7293
的天空	-7294
真正地	-7295
眨了眨	-7296
算不得	-7297
能不能	-7298
那可是	-7299
传说中的	-7300
包裹而进	-7301
另外一个	-7302
智慧之神	-7303
有所察觉	-7304
第一时间	-7305
脑海之中	-7306
克莱恩一边	-7307
克莱恩忽然	-7308
属于自己的	-7309
▁血	-7310
一株	-7311
一秒	-7312
专家	-7313
两声	-7314
二字	-7315
光彩	-7316
光线	-7317
六位	-7318
再去	-7319
向我	-7320
向那	-7321
啪地	-7322
天山	-7323
她是	-7324
小腹	-7325
岩石	-7326
幕布	-7327
微闭	-7328
怎会	-7329
怒喝	-7330
慵懒	-7331
战胜	-7332
找出	-7333
搞得	-7334
显示	-7335
洞口	-7336
灰紫	-7337
生存	-7338
皇后	-7339
米索	-7340
索伦	-7341
聪明	-7342
舒展	-7343
要强	-7344
费内	-7345
辽阔	-7346
重量	-7347
隔着	-7348
首发	-7349
与薰儿	-7350
冲虚道	-7351
引起了	-7352
总算是	-7353
极其的	-7354
然大物	-7355
的神灵	-7356
直接被	-7357
着说道	-7358
米索尔	-7359
而萧炎	-7360
见到那	-7361
隐藏着	-7362
难道是	-7363
黄水晶	-7364
保镖小姐	-7365
做的事情	-7366
吓了一跳	-7367
完全可以	-7368
并不知道	-7369
终于是在	-7370
低声喃喃道	-7371
类似的事情	-7372
乌特拉夫斯基神父	-7373
一致	-7374
一遍	-7375
乐意	-7376
人偶	-7377
便已	-7378
停在	-7379
光华	-7380
关心	-7381
凶险	-7382
印决	-7383
号的	-7384
商量	-7385
嘎吱	-7386
图书	-7387
垂涎	-7388
大使	-7389
学家	-7390
小嘴	-7391
把你	-7392
抖动	-7393
敞开	-7394
整整	-7395
无辜	-7396
极高	-7397
电光	-7398
竞争	-7399
线条	-7400
脆弱	-7401
蜥蜴	-7402
贵宾	-7403
车夫	-7404
轻柔	-7405
连绵	-7406
铁链	-7407
闲聊	-7408
顺势	-7409
首先	-7410
黑炎	-7411
丝毫的	-7412
什么都	-7413
便是得	-7414
大陆上	-7415
的主要	-7416
的对象	-7417
第二纪	-7418
自顾自	-7419
轻轻一	-7420
这只是	-7421
这里是	-7422
令狐公子	-7423
出现了一	-7424
庞然大物	-7425
心神一动	-7426
现在的萧炎	-7427
脸庞上的笑容	-7428
不懂	-7429
不明	-7430
亮起	-7431
人了	-7432
做事	-7433
兴致	-7434
只须	-7435
哐当	-7436
喘息	-7437
坚固	-7438
塞西	-7439
她在	-7440
妖花	-7441
座椅	-7442
很想	-7443
战神	-7444
才道	-7445
扬了	-7446
报仇	-7447
柳菲	-7448
火红	-7449
炎利	-7450
炮弹	-7451
照片	-7452
猜到	-7453
琉斯	-7454
真有	-7455
礼物	-7456
粉碎	-7457
老爷	-7458
英俊	-7459
营地	-7460
蒂亚	-7461
记者	-7462
费用	-7463
黎明	-7464
▁霍然	-7465
不再是	-7466
为自己	-7467
卷烟盒	-7468
大小姐	-7469
惨叫声	-7470
拥有了	-7471
猛然一	-7472
的一幕	-7473
的那般	-7474
的那道	-7475
给出了	-7476
解决掉	-7477
过多久	-7478
这么快	-7479
这是我	-7480
郝长老	-7481
颤抖着	-7482
却是犹如	-7483
萧炎方才	-7484
顿时变得	-7485
知识与智慧之神	-7486
两件	-7487
低级	-7488
侧面	-7489
冒出	-7490
写道	-7491
奇特	-7492
对象	-7493
小声	-7494
巡逻	-7495
底层	-7496
撒谎	-7497
无语	-7498
明悟	-7499
明斯	-7500
是位	-7501
有余	-7502
杀手	-7503
欢呼	-7504
殆尽	-7505
残忍	-7506
民众	-7507
环节	-7508
眸光	-7509
联合	-7510
资源	-7511
达成	-7512
魂魔	-7513
听起来	-7514
地笑道	-7515
每一位	-7516
的序列	-7517
的有些	-7518
的资格	-7519
第二次	-7520
若是有	-7521
谨慎地	-7522
那也是	-7523
也是陡然	-7524
向问天道	-7525
完全没有	-7526
定闲师太	-7527
灵界生物	-7528
眼眸微眯	-7529
蒸汽列车	-7530
这是一个	-7531
了萧炎一眼	-7532
神秘学知识	-7533
一周	-7534
一杯	-7535
万归	-7536
不凡	-7537
乌洛	-7538
会让	-7539
六个	-7540
剑术	-7541
剧毒	-7542
动物	-7543
半分	-7544
压缩	-7545
吓得	-7546
好友	-7547
妖娆	-7548
手枪	-7549
放缓	-7550
本人	-7551
杰森	-7552
滔天	-7553
珍稀	-7554
瞧见	-7555
能与	-7556
解救	-7557
赞同	-7558
远非	-7559
邪君	-7560
骸骨	-7561
▁下一	-7562
不过却	-7563
之圣者	-7564
以萧炎	-7565
具体的	-7566
失败了	-7567
就仿佛	-7568
意思是	-7569
无线电	-7570
星斗者	-7571
然后将	-7572
的控制	-7573
的阳光	-7574
着自己	-7575
程度的	-7576
第二个	-7577
第二更	-7578
莫贝特	-7579
蒸汽与	-7580
顿时间	-7581
高台上	-7582
▁感受到	-7583
乌洛琉斯	-7584
妖花邪君	-7585
定逸师太	-7586
席卷而出	-7587
而伴随着	-7588
负面影响	-7589
辅助材料	-7590
铺天盖地	-7591
▁克莱恩没有	-7592
途径的非凡者	-7593
一日	-7594
不做	-7595
中途	-7596
何处	-7597
修长	-7598
决计	-7599
切的	-7600
反驳	-7601
可就	-7602
听他	-7603
吸纳	-7604
姐妹	-7605
威廉	-7606
定律	-7607
巷子	-7608
异种	-7609
感染	-7610
打了	-7611
找死	-7612
指挥	-7613
描绘	-7614
搜寻	-7615
教育	-7616
最先	-7617
木铁	-7618
植物	-7619
歌者	-7620
渴望	-7621
漠铁	-7622
火种	-7623
焦急	-7624
百年	-7625
笑笑	-7626
纸笔	-7627
蝎山	-7628
血的	-7629
衣袖	-7630
迟缓	-7631
送到	-7632
一时竟	-7633
不敢再	-7634
也是一	-7635
了一场	-7636
你已经	-7637
因为那	-7638
在天际	-7639
很显然	-7640
扬了扬	-7641
是这样	-7642
枚金币	-7643
此时的	-7644
灵魂的	-7645
的拳头	-7646
的黑雾	-7647
紧闭的	-7648
蝎毕岩	-7649
贝克朗	-7650
走四步	-7651
遭遇了	-7652
闪烁间	-7653
但克莱恩	-7654
在其身后	-7655
如此一来	-7656
应该也是	-7657
数不清的	-7658
明斯克街	-7659
格斯坦顿	-7660
肉眼可见	-7661
这种地步	-7662
轻笑了一声	-7663
难以遏制地	-7664
艾辛格斯坦顿	-7665
克莱恩若有所思地	-7666
13	-7667
▁和	-7668
不比	-7669
丹堂	-7670
之名	-7671
会长	-7672
保底	-7673
僵持	-7674
冰霜	-7675
化作	-7676
卡岗	-7677
又能	-7678
发动	-7679
可没	-7680
引人	-7681
待遇	-7682
恭喜	-7683
报机	-7684
按住	-7685
方丈	-7686
方案	-7687
无一	-7688
本想	-7689
油画	-7690
泰山	-7691
深黑	-7692
点的	-7693
略一	-7694
痊愈	-7695
纸牌	-7696
船上	-7697
船员	-7698
袍服	-7699
评价	-7700
赶到	-7701
韩冲	-7702
’。”	-7703
▁那里	-7704
下水道	-7705
也正是	-7706
从哪里	-7707
你还是	-7708
俯视着	-7709
只有着	-7710
喝了口	-7711
在一处	-7712
如果有	-7713
家侦探	-7714
密修会	-7715
居然还	-7716
斯塔琳	-7717
沉重的	-7718
深处的	-7719
的气势	-7720
笑一声	-7721
角落里	-7722
还不够	-7723
这么一	-7724
这倒是	-7725
颇有些	-7726
▁阿兹克	-7727
不了多久	-7728
他老人家	-7729
离开这里	-7730
绝对不会	-7731
转身对着	-7732
这片空间	-7733
都是无法	-7734
鬼魅般的	-7735
▁再	-7736
一支	-7737
世上	-7738
他没	-7739
但她	-7740
俯视	-7741
做着	-7742
减少	-7743
几句	-7744
出场	-7745
化身	-7746
善良	-7747
喧哗	-7748
场面	-7749
层叠	-7750
屋顶	-7751
带上	-7752
平常	-7753
弥补	-7754
强力	-7755
形式	-7756
征兆	-7757
成年	-7758
或是	-7759
披着	-7760
挂着	-7761
方生	-7762
晨曦	-7763
最多	-7764
木战	-7765
本王	-7766
机缘	-7767
极难	-7768
殖民	-7769
消逝	-7770
淡然	-7771
狂妄	-7772
看过	-7773
破了	-7774
结论	-7775
而他	-7776
胆子	-7777
角色	-7778
话来	-7779
趁机	-7780
越过	-7781
酝酿	-7782
铁制	-7783
雪魅	-7784
▁按照	-7785
不明白	-7786
也将会	-7787
于半空	-7788
众多的	-7789
但如今	-7790
你竟然	-7791
光芒的	-7792
全身镜	-7793
准备的	-7794
在此处	-7795
大量的	-7796
恐怕会	-7797
收报机	-7798
桌上的	-7799
的名头	-7800
的迹象	-7801
看一看	-7802
破坏力	-7803
紫晶源	-7804
缓慢地	-7805
闭上了	-7806
隐秘的	-7807
魂殿的	-7808
一个小时	-7809
克莱恩在	-7810
有丝毫的	-7811
有着一种	-7812
然后对着	-7813
纹青灵丹	-7814
逆走四步	-7815
难以想象	-7816
蒸汽与机械	-7817
求月票推荐票	-7818
荆棘安保公司	-7819
不必	-7820
乐祸	-7821
五名	-7822
五指	-7823
人之	-7824
人心	-7825
从天	-7826
偷袭	-7827
光罩	-7828
加尔	-7829
呜呜	-7830
品质	-7831
喷薄	-7832
安乐	-7833
密的	-7834
对这	-7835
幸灾	-7836
废弃	-7837
推测	-7838
放入	-7839
最快	-7840
水的	-7841
清冷	-7842
特意	-7843
狼头	-7844
田兄	-7845
着急	-7846
繁复	-7847
药液	-7848
葱郁	-7849
蠕虫	-7850
退去	-7851
采取	-7852
野兽	-7853
长着	-7854
飞出	-7855
▁那个	-7856
了一般	-7857
了回来	-7858
伸出手	-7859
到最后	-7860
动人的	-7861
区域的	-7862
居高临	-7863
找机会	-7864
改变了	-7865
森林中	-7866
的房屋	-7867
的神色	-7868
表面的	-7869
那么便	-7870
那老者	-7871
都未曾	-7872
九幽黄泉	-7873
听得萧炎	-7874
居然便是	-7875
幸灾乐祸	-7876
无暗十字	-7877
段斗之气	-7878
私家侦探	-7879
若是没有	-7880
萧炎手中	-7881
这个层次	-7882
那老家伙	-7883
靠住椅背	-7884
▁萧炎的目光	-7885
▁正	-7886
与她	-7887
从容	-7888
低喝	-7889
便会	-7890
冒着	-7891
凶猛	-7892
出言	-7893
前后	-7894
匹敌	-7895
反问	-7896
变淡	-7897
唤醒	-7898
墓园	-7899
声里	-7900
大盛	-7901
定力	-7902
实是	-7903
宫廷	-7904
幽深	-7905
惊人	-7906
战士	-7907
指点	-7908
杀掉	-7909
板上	-7910
楼阁	-7911
殷红	-7912
毒蝎	-7913
泄露	-7914
流动	-7915
海浪	-7916
涌进	-7917
状似	-7918
的这	-7919
莉卡	-7920
莫崖	-7921
蝎子	-7922
豪华	-7923
轰出	-7924
还请	-7925
风吹	-7926
▁因此	-7927
两个月	-7928
了他们	-7929
他似乎	-7930
包裹在	-7931
卡尔德	-7932
圣丹城	-7933
在周围	-7934
定然会	-7935
开玩笑	-7936
愣了愣	-7937
拜尔斯	-7938
老科勒	-7939
能量体	-7940
若是被	-7941
觉得这	-7942
递给了	-7943
黑暗中	-7944
▁他没有	-7945
▁梅丽莎	-7946
不是什么	-7947
从其体内	-7948
另外一边	-7949
巅峰强者	-7950
心中却是	-7951
救赎蔷薇	-7952
散发而出	-7953
智慧之眼	-7954
略微沉吟	-7955
转而说道	-7956
这般举动	-7957
那些家伙	-7958
了一件事情	-7959
恢复了正常	-7960
灵魂感知力	-7961
万能	-7962
丈许	-7963
不菲	-7964
中人	-7965
之龙	-7966
他这	-7967
伊思	-7968
体会	-7969
你先	-7970
信任	-7971
冲天	-7972
反击	-7973
呢喃	-7974
围观	-7975
安洁	-7976
宗派	-7977
小蛇	-7978
就将	-7979
居所	-7980
帝品	-7981
承担	-7982
政府	-7983
有限	-7984
桀桀	-7985
棕色	-7986
每周	-7987
海老	-7988
的美	-7989
社会	-7990
翅膀	-7991
股份	-7992
衣裙	-7993
西娅	-7994
谋划	-7995
那份	-7996
面孔	-7997
黑线	-7998
▁回到	-7999
▁根据	-8000
乔伍德	-8001
伊思兰	-8002
几分钟	-8003
坐到了	-8004
就像在	-8005
就已经	-8006
抬起了	-8007
方才是	-8008
的心情	-8009
的表现	-8010
葡萄酒	-8011
转向了	-8012
辛西娅	-8013
通灵者	-8014
那东西	-8015
都可以	-8016
隐藏在	-8017
青色的	-8018
丰收教堂	-8019
之后不久	-8020
伸出右手	-8021
便是陡然	-8022
安洁莉卡	-8023
胡说八道	-8024
魂魔老人	-8025
一亮	-8026
一卷	-8027
万镑	-8028
不顾	-8029
两张	-8030
之火	-8031
事务	-8032
依次	-8033
关头	-8034
台阶	-8035
天目	-8036
契约	-8037
得多	-8038
所过	-8039
来岁	-8040
残破	-8041
每年	-8042
烟雾	-8043
盘踞	-8044
福生	-8045
窗帘	-8046
美目	-8047
脾气	-8048
腾山	-8049
警告	-8050
调配	-8051
迎面	-8052
那小	-8053
重击	-8054
震荡	-8055
面容	-8056
骨灰	-8057
不再有	-8058
了进来	-8059
具现出	-8060
前提是	-8061
可不能	-8062
异样的	-8063
我想象	-8064
摆脱了	-8065
的所有	-8066
眉心处	-8067
第两百	-8068
第四百	-8069
色丹雷	-8070
需要的	-8071
▁而随着	-8072
到得后来	-8073
有着许些	-8074
瞧得萧炎	-8075
竟然便是	-8076
轻轻点头	-8077
萧炎的身体	-8078
阶别的强者	-8079
周一求推荐票月票	-8080
上风	-8081
作响	-8082
做得	-8083
关上	-8084
凝神	-8085
凶狠	-8086
前倾	-8087
发自	-8088
变异	-8089
古界	-8090
名头	-8091
品阶	-8092
姐姐	-8093
媲美	-8094
安娜	-8095
安心	-8096
密林	-8097
巫王	-8098
带走	-8099
幕后	-8100
幽蓝	-8101
弄得	-8102
形状	-8103
戏剧	-8104
我将	-8105
所能	-8106
才有	-8107
抿着	-8108
拿走	-8109
时光	-8110
没用	-8111
波荡	-8112
海军	-8113
的工	-8114
的黄	-8115
简洁	-8116
脚踏	-8117
说起	-8118
贤者	-8119
走近	-8120
追求	-8121
门边	-8122
隐晦	-8123
▁瞧着	-8124
化成了	-8125
在了那	-8126
左右的	-8127
或许会	-8128
收回了	-8129
有一定	-8130
狼狈的	-8131
的各种	-8132
第八百	-8133
轻微的	-8134
也是再度	-8135
倒飞而出	-8136
发出一道	-8137
另一方面	-8138
只见得那	-8139
在这方面	-8140
塔罗聚会	-8141
好不容易	-8142
岩浆世界	-8143
悄无声息	-8144
眼瞳之中	-8145
萧炎眼中	-8146
走了出来	-8147
越来越多	-8148
黄金梦想	-8149
不由得有些	-8150
有着不小的	-8151
苍老的声音	-8152
越来越多的	-8153
历史孔隙影像	-8154
吸了一口凉气	-8155
无线电收报机	-8156
人手	-8157
内斯	-8158
变了	-8159
小孩	-8160
帝境	-8161
很小	-8162
手脚	-8163
持有	-8164
排查	-8165
格外	-8166
欧根	-8167
深山	-8168
混沌	-8169
灵的	-8170
爸爸	-8171
的行	-8172
立的	-8173
筑基	-8174
纹路	-8175
绿竹	-8176
缘由	-8177
舒服	-8178
萎靡	-8179
那时	-8180
金银	-8181
风清	-8182
?”“	-8183
主材料	-8184
习惯性	-8185
冷喝道	-8186
当初在	-8187
欧内斯	-8188
的方位	-8189
给他们	-8190
距离时	-8191
这两人	-8192
重要的	-8193
闪过了	-8194
麻烦了	-8195
▁老尼尔	-8196
嘿嘿一笑	-8197
当下便是	-8198
愣了一下	-8199
扩散而开	-8200
有着一个	-8201
毒蝎龙兽	-8202
睁开双眼	-8203
经验丰富	-8204
胡德欧根	-8205
体内的斗气	-8206
笑吟吟的道	-8207
颤抖了起来	-8208
hú	-8209
不经	-8210
他那	-8211
几率	-8212
分享	-8213
危害	-8214
古域	-8215
坐至	-8216
抓紧	-8217
挣脱	-8218
数千	-8219
斗晶	-8220
斩杀	-8221
杨莲	-8222
正经	-8223
清了	-8224
环视	-8225
现象	-8226
空旷	-8227
纹丝	-8228
终究	-8229
视为	-8230
贵的	-8231
过多	-8232
这也	-8233
远超	-8234
逃走	-8235
逼得	-8236
都得	-8237
闯进	-8238
雇主	-8239
饰品	-8240
饶有	-8241
▁虽说	-8242
人类的	-8243
命运的	-8244
复杂的	-8245
就那样	-8246
怕也是	-8247
杨莲亭	-8248
灰色的	-8249
的古老	-8250
衡山派	-8251
转过身	-8252
长老的	-8253
修炼天赋	-8254
原始岛屿	-8255
在这一刻	-8256
帝品雏丹	-8257
自然不会	-8258
萧炎顿时	-8259
费内波特	-8260
身上扫过	-8261
过了多久	-8262
▁作为一名	-8263
第一千一百	-8264
第一千三百	-8265
5,	-8266
▁刚	-8267
一堆	-8268
一齐	-8269
三角	-8270
为你	-8271
人流	-8272
人生	-8273
光凭	-8274
冲出	-8275
冷淡	-8276
加速	-8277
大胆	-8278
就好	-8279
尽力	-8280
山林	-8281
报告	-8282
收好	-8283
星域	-8284
欺诈	-8285
残图	-8286
的尖	-8287
目睹	-8288
符文	-8289
粉红	-8290
舞动	-8291
要去	-8292
观主	-8293
诱人	-8294
踏足	-8295
躲藏	-8296
轻弹	-8297
这对	-8298
金黄	-8299
黛西	-8300
▁两者	-8301
▁苏千	-8302
不要再	-8303
以前的	-8304
但萧炎	-8305
初步的	-8306
半个月	-8307
厚厚的	-8308
巨人语	-8309
并不多	-8310
很大的	-8311
急速的	-8312
此次的	-8313
的方法	-8314
的虚幻	-8315
眸子中	-8316
经历了	-8317
能量罩	-8318
自己和	-8319
被发现	-8320
顾不得	-8321
风清扬	-8322
▁一旁的	-8323
便是迅速	-8324
克莱恩用	-8325
别的地方	-8326
却是能够	-8327
只有一个	-8328
命运之蛇	-8329
手掌之上	-8330
福生玄黄	-8331
这小家伙	-8332
这所谓的	-8333
那个家伙	-8334
闭上眼睛	-8335
面色阴沉	-8336
▁就在萧炎	-8337
如今的萧炎	-8338
第一千两百	-8339
萧炎的实力	-8340
轻松了一口气	-8341
进入灰雾之上	-8342
11	-8343
‘0	-8344
之势	-8345
之盒	-8346
乘客	-8347
交情	-8348
他已	-8349
他想	-8350
全黑	-8351
出面	-8352
到他	-8353
勇气	-8354
北阁	-8355
半夜	-8356
压下	-8357
叠叠	-8358
地球	-8359
地话	-8360
大片	-8361
宛若	-8362
宣布	-8363
小手	-8364
巨响	-8365
帕特	-8366
弟兄	-8367
心念	-8368
成绩	-8369
执政	-8370
投资	-8371
树叶	-8372
淡金	-8373
瀑布	-8374
秃笔	-8375
精力	-8376
置身	-8377
翡翠	-8378
老实	-8379
胸针	-8380
药丹	-8381
试着	-8382
追踪	-8383
铁门	-8384
门人	-8385
队友	-8386
雁落	-8387
面积	-8388
hún	-8389
▁众人	-8390
▁终于	-8391
不见了	-8392
也不过	-8393
也许是	-8394
他忽然	-8395
但最终	-8396
你认为	-8397
回荡着	-8398
它们的	-8399
已经在	-8400
弄到手	-8401
强悍的	-8402
我曾经	-8403
拿出了	-8404
收敛住	-8405
最开始	-8406
洪天啸	-8407
火属性	-8408
的威力	-8409
的心火	-8410
的血色	-8411
第一更	-8412
精致的	-8413
而且这	-8414
而在那	-8415
药万归	-8416
西拜朗	-8417
起居室	-8418
随意地	-8419
黄铜书	-8420
▁巨大的	-8421
便是犹如	-8422
保底月票	-8423
先是一怔	-8424
嘴中传出	-8425
张开嘴巴	-8426
毁灭火莲	-8427
转过头来	-8428
二品炼药师	-8429
便是出现在	-8430
铁制卷烟盒	-8431
中所	-8432
之状	-8433
也都	-8434
了些	-8435
于我	-8436
五海	-8437
人来	-8438
几条	-8439
凹陷	-8440
利兹	-8441
右侧	-8442
各有	-8443
喧闹	-8444
基础	-8445
复苏	-8446
大气	-8447
姆斯	-8448
定是	-8449
常识	-8450
幽邃	-8451
惋惜	-8452
推移	-8453
操作	-8454
斯图	-8455
易尘	-8456
更高	-8457
有谁	-8458
杂志	-8459
标识	-8460
水银	-8461
涂抹	-8462
灵摆	-8463
热情	-8464
瞧出	-8465
精彩	-8466
要将	-8467
记起	-8468
证据	-8469
跟他	-8470
那他	-8471
▁一位	-8472
下午好	-8473
不存在	-8474
他一眼	-8475
半透明	-8476
在场的	-8477
很简单	-8478
成员的	-8479
普利兹	-8480
疑惑的	-8481
的态度	-8482
的经验	-8483
皇后区	-8484
相抗衡	-8485
黑暗的	-8486
一些实力	-8487
也是微微	-8488
咬了咬牙	-8489
天阶斗技	-8490
帕特里克	-8491
房间之中	-8492
旧日之盒	-8493
有所恍然	-8494
烛离长老	-8495
突然之间	-8496
第一千零	-8497
起了眉头	-8498
▁没过多久	-8499
也是缓缓的	-8500
倒吊人先生	-8501
第一千四百	-8502
黄昏隐士会	-8503
艾弥留斯上将	-8504
都是忍不住的	-8505
▁“......”	-8506
不轻	-8507
之书	-8508
保险	-8509
充盈	-8510
光辉	-8511
内侧	-8512
内敛	-8513
北王	-8514
吉尔	-8515
听的	-8516
咚咚	-8517
喜意	-8518
小瓶	-8519
年前	-8520
强度	-8521
归来	-8522
往的	-8523
替身	-8524
杀我	-8525
每当	-8526
流传	-8527
湮灭	-8528
源自	-8529
潘娜	-8530
灰衣	-8531
独特	-8532
狮鹫	-8533
看其	-8534
祝福	-8535
端着	-8536
粉尘	-8537
罗萨	-8538
而回	-8539
胜过	-8540
脱困	-8541
血雾	-8542
该死	-8543
轻点	-8544
违背	-8545
连环	-8546
递给	-8547
部队	-8548
都很	-8549
雷斯	-8550
验证	-8551
▁刚才	-8552
▁思绪	-8553
上一次	-8554
上许多	-8555
不一样	-8556
不可思	-8557
也难以	-8558
了上来	-8559
但若是	-8560
却是被	-8561
召唤出	-8562
对于他	-8563
执政官	-8564
比起来	-8565
煤气灯	-8566
状态的	-8567
秃笔翁	-8568
算得上	-8569
罗萨戈	-8570
老爷子	-8571
能够与	-8572
银骑士	-8573
人造死神	-8574
会的成员	-8575
卡尔德隆	-8576
向令狐冲	-8577
斯图亚特	-8578
最重要的	-8579
未曾料到	-8580
正义小姐	-8581
潘娜蒂亚	-8582
田伯光道	-8583
眨眼时间	-8584
筑基灵液	-8585
而随着其	-8586
苏尼亚海	-8587
金毛大狗	-8588
萧炎望着那	-8589
快若闪电般的	-8590
一想	-8591
上所	-8592
之底	-8593
争取	-8594
传进	-8595
但你	-8596
位阶	-8597
便如	-8598
健康	-8599
出世	-8600
助手	-8601
叮嘱	-8602
可否	-8603
回信	-8604
大军	-8605
委员	-8606
巨树	-8607
幻境	-8608
得紧	-8609
怠慢	-8610
悬空	-8611
惧怕	-8612
愚蠢	-8613
抢先	-8614
换做	-8615
显是	-8616
暴雨	-8617
波浪	-8618
洞穿	-8619
源质	-8620
火毒	-8621
火鼎	-8622
生火	-8623
稍有	-8624
粗壮	-8625
精血	-8626
统治	-8627
而我	-8628
诗人	-8629
那把	-8630
都未	-8631
际的	-8632
雷电	-8633
震退	-8634
食指	-8635
黑盟	-8636
黑蛇	-8637
160	-8638
上官云	-8639
位置的	-8640
余观主	-8641
具备着	-8642
千纸鹤	-8643
却依然	-8644
只要你	-8645
吉尔希	-8646
回过头	-8647
大厅内	-8648
大雾霾	-8649
完整的	-8650
挣扎着	-8651
的空气	-8652
的笑声	-8653
的那张	-8654
看守者	-8655
说出来	-8656
这一剑	-8657
这女人	-8658
银白的	-8659
顺利的	-8660
不可思议	-8661
他的实力	-8662
伊思兰特	-8663
却是发现	-8664
心头也是	-8665
无形火蟒	-8666
有着一道	-8667
说到这里	-8668
跟了上去	-8669
这种感觉	-8670
叹了口气道	-8671
吉尔希艾斯	-8672
打了个响指	-8673
点了点头道	-8674
笑眯眯的道	-8675
黑荆棘安保公司	-8676
眼中也是掠过一抹	-8677
一跃	-8678
不平	-8679
丹界	-8680
举止	-8681
争斗	-8682
以下	-8683
以免	-8684
体质	-8685
侧过	-8686
入内	-8687
分出	-8688
剩余	-8689
各人	-8690
君子	-8691
四方	-8692
天灾	-8693
密布	-8694
弄到	-8695
感的	-8696
暴躁	-8697
最低	-8698
瞄准	-8699
翻看	-8700
能有	-8701
脑中	-8702
茫茫	-8703
街区	-8704
迷糊	-8705
那会	-8706
韩池	-8707
风的	-8708
魂元	-8709
▁再次	-8710
似乎有	-8711
便是从	-8712
内院的	-8713
喉咙间	-8714
将整个	-8715
带来了	-8716
旋即在	-8717
的名称	-8718
目的是	-8719
纳兰肃	-8720
那小子	-8721
雁落天	-8722
▁察觉到	-8723
令得他们	-8724
喷射而出	-8725
就在萧炎	-8726
山洞之中	-8727
张了张嘴	-8728
森白火焰	-8729
萧炎先生	-8730
萧炎身旁	-8731
难以言喻	-8732
非常清楚	-8733
小医仙等人	-8734
萧炎摇了摇头	-8735
乌特拉夫斯基主教	-8736
2”	-8737
’。	-8738
一两	-8739
丘陵	-8740
举手	-8741
乌黑	-8742
也很	-8743
人多	-8744
依稀	-8745
便将	-8746
凝视	-8747
十多	-8748
响了	-8749
固定	-8750
塔索	-8751
失神	-8752
射击	-8753
心底	-8754
抚着	-8755
排斥	-8756
提示	-8757
料想	-8758
方圆	-8759
死在	-8760
游迅	-8761
神战	-8762
禁止	-8763
福威	-8764
细细	-8765
读心	-8766
迷惑	-8767
郁闷	-8768
不小心	-8769
丹药的	-8770
主要是	-8771
他们是	-8772
他还是	-8773
但他们	-8774
依靠着	-8775
停下了	-8776
充满着	-8777
先生和	-8778
冷声道	-8779
在地下	-8780
塔索克	-8781
声喝道	-8782
如果是	-8783
广场中	-8784
成一片	-8785
扭曲的	-8786
有些发	-8787
激烈的	-8788
狰狞的	-8789
的女孩	-8790
的那枚	-8791
的青色	-8792
肯定是	-8793
铁黑色	-8794
一个问题	-8795
传出一道	-8796
眉头一皱	-8797
眉头紧皱	-8798
看这模样	-8799
福威镖局	-8800
闪掠而来	-8801
吸了一口气	-8802
上翘	-8803
丛林	-8804
两股	-8805
丹域	-8806
之战	-8807
倾泻	-8808
军官	-8809
冷酷	-8810
北城	-8811
厄运	-8812
可这	-8813
同意	-8814
圣姑	-8815
坐起	-8816
大吃	-8817
好意	-8818
宗师	-8819
巨剑	-8820
巨蟒	-8821
待在	-8822
惊悚	-8823
抖了	-8824
抬眼	-8825
攀爬	-8826
无不	-8827
暗叹	-8828
更甚	-8829
最早	-8830
死号	-8831
混杂	-8832
狂奔	-8833
率领	-8834
现出	-8835
男女	-8836
画像	-8837
白皙	-8838
的死	-8839
眩晕	-8840
眼睁	-8841
空闲	-8842
美貌	-8843
至今	-8844
节奏	-8845
茶几	-8846
证实	-8847
说服	-8848
趁着	-8849
达尔	-8850
迅猛	-8851
那根	-8852
银制	-8853
雏形	-8854
音爆	-8855
须得	-8856
高傲	-8857
▁其实	-8858
也不知	-8859
些什么	-8860
如此的	-8861
异常的	-8862
我一直	-8863
我师父	-8864
杂物堆	-8865
照亮了	-8866
的小子	-8867
的血肉	-8868
盯着那	-8869
笼罩了	-8870
船长室	-8871
行李箱	-8872
让它们	-8873
还是得	-8874
遗留的	-8875
倾洒而下	-8876
其中一个	-8877
居然能够	-8878
这个身份	-8879
不着痕迹的	-8880
什么都没有	-8881
狼头佣兵团	-8882
这个时代的	-8883
♀♀	-8884
事先	-8885
人人	-8886
人数	-8887
做梦	-8888
凑齐	-8889
初次	-8890
制服	-8891
刷刷	-8892
响亮	-8893
喀嚓	-8894
四肢	-8895
大喝	-8896
大法	-8897
头戴	-8898
密室	-8899
很像	-8900
怔了	-8901
懒得	-8902
扭头	-8903
拉维	-8904
拔出	-8905
拼了	-8906
接住	-8907
接待	-8908
极具	-8909
格的	-8910
淋漓	-8911
理论	-8912
看完	-8913
眷顾	-8914
着实	-8915
粗略	-8916
肤色	-8917
行进	-8918
触动	-8919
费彬	-8920
退缩	-8921
通玄	-8922
门户	-8923
间接	-8924
隔壁	-8925
青衣	-8926
齐山	-8927
一脸的	-8928
不一定	-8929
不会比	-8930
他二人	-8931
但现在	-8932
其身形	-8933
凌厉的	-8934
势力的	-8935
又不是	-8936
只是在	-8937
帝国的	-8938
并不算	-8939
我不是	-8940
我相信	-8941
抖了抖	-8942
拥有的	-8943
无比的	-8944
百分之	-8945
直接将	-8946
眼睁睁	-8947
神秘人	-8948
突兀的	-8949
纷呈间	-8950
袍老者	-8951
见到他	-8952
让得她	-8953
飞速的	-8954
▁特莉丝	-8955
任我行道	-8956
克莱恩就	-8957
变得极为	-8958
如今的他	-8959
恢复正常	-8960
显得有些	-8961
根本没有	-8962
盘腿而坐	-8963
萧炎微微	-8964
金色火焰	-8965
▁克莱恩的	-8966
▁无声无息	-8967
▁过了一阵	-8968
黄水晶吊坠	-8969
一行	-8970
不急	-8971
云雾	-8972
修行	-8973
创伤	-8974
十指	-8975
卡斯	-8976
在与	-8977
塞进	-8978
多次	-8979
富翁	-8980
微缩	-8981
怜悯	-8982
意图	-8983
我再	-8984
招式	-8985
毒辣	-8986
沉淀	-8987
狂猛	-8988
生意	-8989
盖子	-8990
盘坐	-8991
眼泪	-8992
睁大	-8993
背叛	-8994
血海	-8995
设计	-8996
赫家	-8997
踉跄	-8998
轻快	-8999
进展	-9000
雷光	-9001
高大	-9002
高阶	-9003
▁为了	-9004
▁脸色	-9005
不住的	-9006
了下手	-9007
其手中	-9008
卡斯帕	-9009
含笑道	-9010
宽敞的	-9011
少林派	-9012
就像是	-9013
应该有	-9014
月时间	-9015
有一天	-9016
有多么	-9017
活着的	-9018
清脆的	-9019
的特殊	-9020
绯红的	-9021
美人鱼	-9022
达斯特	-9023
什么都没	-9024
令狐掌门	-9025
修炼速度	-9026
克莱恩边	-9027
卡斯帕斯	-9028
怔了一下	-9029
有的时候	-9030
爱德华兹	-9031
看见了一	-9032
萧炎面色	-9033
警察部门	-9034
这些事情	-9035
问题在于	-9036
六品炼药师	-9037
持续了将近	-9038
微笑着点了点头	-9039
安提哥努斯家族笔记	-9040
▁走	-9041
七星	-9042
不耐	-9043
丢失	-9044
书中	-9045
五大	-9046
享用	-9047
便欲	-9048
升空	-9049
团队	-9050
圣堂	-9051
外形	-9052
大道	-9053
妮娜	-9054
姓名	-9055
客轮	-9056
对碰	-9057
尖顶	-9058
希尔	-9059
平稳	-9060
幽灵	-9061
底下	-9062
往常	-9063
得好	-9064
悚然	-9065
找你	-9066
挲着	-9067
掌印	-9068
擅于	-9069
放于	-9070
断裂	-9071
无施	-9072
晋阶	-9073
暴君	-9074
最有	-9075
有这	-9076
松开	-9077
果实	-9078
此行	-9079
步骤	-9080
漏洞	-9081
漠然	-9082
火儿	-9083
玉片	-9084
眼帘	-9085
秒后	-9086
结交	-9087
结出	-9088
翻动	-9089
脱手	-9090
般地	-9091
苍穹	-9092
落败	-9093
论起	-9094
赶来	-9095
辈子	-9096
都市	-9097
鼻梁	-9098
一笑道	-9099
不对劲	-9100
也的确	-9101
了不起	-9102
到哪里	-9103
动了动	-9104
响起的	-9105
在先前	-9106
坚硬的	-9107
所说的	-9108
早已经	-9109
更好的	-9110
狂暴海	-9111
的任务	-9112
的阿蒙	-9113
突破至	-9114
行动的	-9115
计无施	-9116
阴冷的	-9117
也是开始	-9118
兄弟姐妹	-9119
出了什么	-9120
可以直接	-9121
天山血潭	-9122
如果没有	-9123
对于这种	-9124
将手中的	-9125
彻底消化	-9126
梦境占卜	-9127
真是让人	-9128
萧炎忽然	-9129
说了一句	-9130
还有什么	-9131
官方非凡者	-9132
微皱着眉头	-9133
从纳戒中取出一	-9134
一晃	-9135
一模	-9136
一笔	-9137
上那	-9138
之旁	-9139
了得	-9140
会议	-9141
但见	-9142
住的	-9143
光门	-9144
全是	-9145
军队	-9146
出头	-9147
医院	-9148
厨房	-9149
同情	-9150
吐血	-9151
吴辰	-9152
响应	-9153
多有	-9154
大意	-9155
小事	-9156
幽幽	-9157
弯曲	-9158
思维	-9159
我了	-9160
推门	-9161
提问	-9162
数字	-9163
族群	-9164
是好	-9165
期盼	-9166
未有	-9167
来吧	-9168
枯竭	-9169
治安	-9170
滚滚	-9171
灯笼	-9172
灵气	-9173
白之	-9174
的啊	-9175
看他	-9176
空地	-9177
站着	-9178
缺少	-9179
航道	-9180
设置	-9181
走上	-9182
通缉	-9183
镇定	-9184
黑洞	-9185
不管是	-9186
便是自	-9187
包裹着	-9188
平一指	-9189
形成的	-9190
我们也	-9191
柳长老	-9192
每个人	-9193
的便是	-9194
的死亡	-9195
的看着	-9196
追问道	-9197
镶嵌着	-9198
顺时针	-9199
不管怎样	-9200
乔伍德区	-9201
了几秒道	-9202
再也无法	-9203
几乎没有	-9204
历史迷雾	-9205
和佛尔思	-9206
地反问道	-9207
对他来说	-9208
狂暴能量	-9209
至少也是	-9210
萧炎望着	-9211
轻飘飘的	-9212
这些药材	-9213
这种东西	-9214
沉吟了一会	-9215
淡淡的笑道	-9216
直接是令得	-9217
▁不知过了多久	-9218
蒸汽与机械之神	-9219
▁你	-9220
上有	-9221
下落	-9222
丧钟	-9223
何以	-9224
其内	-9225
冥界	-9226
出售	-9227
加更	-9228
古虚	-9229
史蒂	-9230
地阶	-9231
城堡	-9232
尽管	-9233
屋内	-9234
归于	-9235
得更	-9236
忽略	-9237
抓捕	-9238
挺直	-9239
摸索	-9240
暴动	-9241
杀气	-9242
某处	-9243
欢喜	-9244
浅浅	-9245
消融	-9246
焦黑	-9247
睡着	-9248
稀罕	-9249
竞技	-9250
繁琐	-9251
而为	-9252
自言	-9253
艳羡	-9254
莽荒	-9255
菲尔	-9256
衰败	-9257
观看	-9258
走过	-9259
这和	-9260
进度	-9261
连那	-9262
里有	-9263
闷哼	-9264
除此	-9265
雷池	-9266
顶部	-9267
魔雷	-9268
鸣声	-9269
上来说	-9270
不用再	-9271
以上的	-9272
低序列	-9273
只知道	-9274
在这等	-9275
少宗主	-9276
尽头的	-9277
形成了	-9278
必然是	-9279
恨不得	-9280
悄然的	-9281
某一刻	-9282
的工夫	-9283
的程度	-9284
硕大的	-9285
突破到	-9286
苦笑着	-9287
认出了	-9288
这么做	-9289
镑现金	-9290
页日记	-9291
了几分钟	-9292
内院之中	-9293
天际之上	-9294
掀起一抹	-9295
这片区域	-9296
非常危险	-9297
额头上的	-9298
飞掠而去	-9299
▁想到这里	-9300
巴掌大小的	-9301
漠铁佣兵团	-9302
第一千五百	-9303
一出	-9304
七人	-9305
三四	-9306
三色	-9307
不利	-9308
不语	-9309
事了	-9310
兀自	-9311
决心	-9312
分为	-9313
动力	-9314
匍匐	-9315
压压	-9316
去的	-9317
变态	-9318
古堡	-9319
吱呀	-9320
哆嗦	-9321
国度	-9322
圆润	-9323
外神	-9324
大怒	-9325
大赛	-9326
头人	-9327
奥巴	-9328
好汉	-9329
得出	-9330
心生	-9331
心疼	-9332
戈尔	-9333
房中	-9334
掠夺	-9335
掠进	-9336
收集	-9337
救我	-9338
无从	-9339
服务	-9340
本派	-9341
极少	-9342
模仿	-9343
次的	-9344
气丹	-9345
沙之	-9346
没谁	-9347
海水	-9348
消除	-9349
淹没	-9350
炸弹	-9351
烟囱	-9352
照射	-9353
真价	-9354
眼芒	-9355
肮脏	-9356
葛叶	-9357
行于	-9358
规定	-9359
责任	-9360
趋势	-9361
邪教	-9362
阴阳	-9363
隔离	-9364
青山	-9365
颤栗	-9366
鲜红	-9367
龙皇	-9368
▁似是	-9369
▁直到	-9370
▁眼睛	-9371
▁而这	-9372
不动声	-9373
二人的	-9374
他并不	-9375
令狐兄	-9376
你需要	-9377
前提下	-9378
回来的	-9379
声响彻	-9380
就不会	-9381
尽全力	-9382
恭声道	-9383
手一挥	-9384
拿到了	-9385
毕竟是	-9386
狮鹫兽	-9387
的两人	-9388
的关系	-9389
的动静	-9390
的区域	-9391
的女人	-9392
的波动	-9393
的父亲	-9394
瞧得那	-9395
花纹的	-9396
贵宾席	-9397
那模样	-9398
钻进了	-9399
顿时一	-9400
高背椅	-9401
不快不慢	-9402
两个小时	-9403
任大小姐	-9404
传了出来	-9405
偏头对着	-9406
克莱恩道	-9407
原初魔女	-9408
多说什么	-9409
将注意力	-9410
早有准备	-9411
深红星辰	-9412
的那一刻	-9413
空间通道	-9414
萧炎并未	-9415
萧炎手指	-9416
身穿黑色	-9417
这一次的	-9418
这位先生	-9419
都不知道	-9420
风雷北阁	-9421
萧炎终于是	-9422
万物	-9423
之的	-9424
于此	-9425
伟大	-9426
偏僻	-9427
到时	-9428
削弱	-9429
可那	-9430
呻吟	-9431
哒哒	-9432
多加	-9433
大衣	-9434
天猿	-9435
失笑	-9436
娃娃	-9437
嫉妒	-9438
巍峨	-9439
弟弟	-9440
当当	-9441
得起	-9442
微张	-9443
惊惧	-9444
惩罚	-9445
找我	-9446
拦截	-9447
挥舞	-9448
接下	-9449
晶层	-9450
杀戮	-9451
比剑	-9452
毛孔	-9453
污秽	-9454
烦恼	-9455
玉石	-9456
登上	-9457
的上	-9458
省油	-9459
神教	-9460
答允	-9461
紧了	-9462
紧急	-9463
莫测	-9464
获取	-9465
要害	-9466
语速	-9467
轰轰	-9468
辛德	-9469
这块	-9470
高人	-9471
300	-9472
▁一路	-9473
▁他刚	-9474
▁出了	-9475
▁最后	-9476
一出现	-9477
不多的	-9478
不好的	-9479
与魂殿	-9480
也同样	-9481
五分钟	-9482
他突然	-9483
你究竟	-9484
哗啦啦	-9485
地望着	-9486
审视起	-9487
平静的	-9488
慢悠悠	-9489
我也是	-9490
拿出来	-9491
既然你	-9492
曾经的	-9493
有一些	-9494
残余的	-9495
然后再	-9496
略有点	-9497
的真实	-9498
的答案	-9499
莫名的	-9500
记起了	-9501
货真价	-9502
还活着	-9503
道人影	-9504
都知道	-9505
隐隐的	-9506
魂元天	-9507
魔天猿	-9508
▁见到那	-9509
万能钥匙	-9510
与小医仙	-9511
也是因为	-9512
令狐冲的	-9513
意义上的	-9514
斗尊巅峰	-9515
无论如何	-9516
皱了皱眉	-9517
而到时候	-9518
脚尖一点	-9519
萧炎兄弟	-9520
辛德拉斯	-9521
▁这样一来	-9522
看了他一眼	-9523
自语了一句	-9524
萧炎脸庞上	-9525
不属于这个时代的	-9526
49	-9527
不提	-9528
乱的	-9529
了把	-9530
五章	-9531
关联	-9532
凸肚	-9533
出色	-9534
分殿	-9535
切齿	-9536
厌恶	-9537
反锁	-9538
可数	-9539
宝典	-9540
巨头	-9541
当成	-9542
我先	-9543
手爪	-9544
手的	-9545
招数	-9546
插在	-9547
收服	-9548
既是	-9549
时日	-9550
气得	-9551
沮丧	-9552
满身	-9553
牺牲	-9554
相近	-9555
相隔	-9556
考特	-9557
而入	-9558
而降	-9559
落到	-9560
要比	-9561
讨厌	-9562
贝利	-9563
这支	-9564
那双	-9565
院中	-9566
院落	-9567
随机	-9568
霍恩	-9569
顿住	-9570
飘忽	-9571
200	-9572
▁说着	-9573
不至于	-9574
从天际	-9575
他方才	-9576
准备着	-9577
几十米	-9578
吃了一	-9579
图书馆	-9580
奶奶的	-9581
寻常的	-9582
开启了	-9583
怔了怔	-9584
摇摇晃	-9585
日月教	-9586
是真的	-9587
然而止	-9588
的价格	-9589
的风险	-9590
缓缓地	-9591
老人的	-9592
中的萧炎	-9593
也是难以	-9594
到得最后	-9595
嘭的一声	-9596
对于这个	-9597
心中一动	-9598
心灵巨龙	-9599
摇摇晃晃	-9600
留在这里	-9601
竟然能够	-9602
脱口而出	-9603
苍老身影	-9604
这么大的	-9605
远古种族	-9606
魔女教派	-9607
▁贝尔纳黛	-9608
在灰雾之上	-9609
忍不住的一	-9610
无数道目光	-9611
淡淡的声音	-9612
炽热的温度	-9613
很长一段时间	-9614
▁科林伊利亚特	-9615
!’	-9616
,”	-9617
一生	-9618
专心	-9619
东尼	-9620
乖乖	-9621
书架	-9622
二世	-9623
人形	-9624
人皮	-9625
他都	-9626
仲裁	-9627
你将	-9628
侧身	-9629
便有	-9630
偏偏	-9631
共有	-9632
切科	-9633
发明	-9634
可别	-9635
同一	-9636
市场	-9637
干尸	-9638
异动	-9639
忘了	-9640
惊疑	-9641
打在	-9642
掀起	-9643
收进	-9644
放好	-9645
斑斓	-9646
时机	-9647
更后	-9648
气流	-9649
河流	-9650
灯火	-9651
熟人	-9652
百丈	-9653
直冲	-9654
督察	-9655
神之	-9656
秘书	-9657
稀疏	-9658
空中	-9659
米勒	-9660
素来	-9661
累积	-9662
组合	-9663
罗门	-9664
血管	-9665
讶异	-9666
贝齿	-9667
负担	-9668
财富	-9669
贸然	-9670
部落	-9671
都已	-9672
酒保	-9673
陆牧	-9674
限于	-9675
雄伟	-9676
▁在他	-9677
▁班森	-9678
▁轰隆	-9679
一分钟	-9680
三个月	-9681
凝视着	-9682
刚好是	-9683
制成的	-9684
可以让	-9685
大笑道	-9686
安东尼	-9687
帕切科	-9688
抚摸着	-9689
无人能	-9690
本能就	-9691
水晶球	-9692
猛然自	-9693
的一座	-9694
的那样	-9695
看来这	-9696
立刻就	-9697
第三层	-9698
绿竹翁	-9699
置可否	-9700
说甚么	-9701
距离的	-9702
这应该	-9703
一道黑影	-9704
不敢相信	-9705
仅仅只有	-9706
他们也是	-9707
停留在了	-9708
却是有些	-9709
感觉到了	-9710
截然不同	-9711
此时此刻	-9712
然而就在	-9713
真是一个	-9714
萧炎脸庞	-9715
进入其中	-9716
不由自主的	-9717
压低嗓音道	-9718
地点了点头	-9719
▁小	-9720
一小	-9721
三更	-9722
两大	-9723
中有	-9724
举办	-9725
了握	-9726
他可	-9727
但不	-9728
你若	-9729
你那	-9730
例外	-9731
其时	-9732
凶魂	-9733
可他	-9734
啪啦	-9735
回报	-9736
垂下	-9737
埋伏	-9738
塔内	-9739
容颜	-9740
密切	-9741
庞德	-9742
强迫	-9743
得他	-9744
意念	-9745
所为	-9746
所想	-9747
无名	-9748
朗声	-9749
死后	-9750
滑稽	-9751
特征	-9752
独孤	-9753
狼人	-9754
猎物	-9755
猴儿	-9756
用过	-9757
破烂	-9758
纤细	-9759
罗侯	-9760
补偿	-9761
计算	-9762
逆转	-9763
遗物	-9764
隔空	-9765
雷赢	-9766
骰子	-9767
高位	-9768
魅力	-9769
黑木	-9770
▁眼见	-9771
一挥手	-9772
不过当	-9773
了几声	-9774
交给了	-9775
使用了	-9776
先更后	-9777
台上的	-9778
因为她	-9779
失控的	-9780
妖天啸	-9781
影响到	-9782
得犹如	-9783
愤怒的	-9784
所罗门	-9785
控制着	-9786
方才会	-9787
无尽的	-9788
根本没	-9789
梦境里	-9790
海纳斯	-9791
的反应	-9792
的白色	-9793
的血腥	-9794
绝对是	-9795
能力的	-9796
艰难的	-9797
萨默尔	-9798
蜥蜴人	-9799
轩护法	-9800
陌生的	-9801
▁林平之	-9802
也同样是	-9803
先是一愣	-9804
咬牙切齿	-9805
哈哈一笑	-9806
大殿之内	-9807
成为半神	-9808
普利兹港	-9809
桃根仙道	-9810
泛起一抹	-9811
漆黑眸中	-9812
的年轻人	-9813
秘之圣者	-9814
纳兰家族	-9815
能够成为	-9816
艾伦医生	-9817
莫名其妙	-9818
这个话题	-9819
值夜者小队	-9820
奥黛丽小姐	-9821
沙之佣兵团	-9822
疯狂冒险家	-9823
皱起了眉头	-9824
从纳戒中取出	-9825
辛德拉斯男爵	-9826
返回现实世界	-9827
不属于这个时代的愚者	-9828
一听	-9829
下风	-9830
不料	-9831
不留	-9832
之手	-9833
从小	-9834
你看	-9835
凡是	-9836
分成	-9837
又要	-9838
另有	-9839
和煦	-9840
围攻	-9841
在大	-9842
坚定	-9843
多问	-9844
大型	-9845
天南	-9846
寸寸	-9847
得住	-9848
扬起	-9849
把玩	-9850
拉拢	-9851
损伤	-9852
斯顿	-9853
无用	-9854
杰克	-9855
森严	-9856
歌声	-9857
死人	-9858
火奴	-9859
烦躁	-9860
狼藉	-9861
王八	-9862
白雾	-9863
相救	-9864
空白	-9865
窥视	-9866
组建	-9867
舒畅	-9868
被我	-9869
较量	-9870
近在	-9871
银光	-9872
镜面	-9873
▁目送	-9874
一缕缕	-9875
了一段	-9876
他清楚	-9877
做了个	-9878
古虚龙	-9879
叫什么	-9880
回气丹	-9881
地萧炎	-9882
宽大的	-9883
我必须	-9884
本能地	-9885
泛起了	-9886
的关键	-9887
的回答	-9888
的液体	-9889
的生活	-9890
的行为	-9891
的语气	-9892
真的很	-9893
窥秘人	-9894
▁这不是	-9895
什么样的	-9896
以萧炎的	-9897
先更后改	-9898
八品丹药	-9899
净莲妖圣	-9900
变得有些	-9901
多了几分	-9902
太古虚龙	-9903
实力达到	-9904
实在是太	-9905
火焰之中	-9906
省油的灯	-9907
知道自己	-9908
精神状态	-9909
这里的人	-9910
途径序列	-9911
克莱恩思绪	-9912
狠狠的撞击	-9913
▁无声无息间	-9914
霍纳奇斯山脉	-9915
特伦索斯特黄铜书	-9916
一楼	-9917
万里	-9918
临近	-9919
之言	-9920
交战	-9921
付敖	-9922
内脏	-9923
冷意	-9924
分外	-9925
半尺	-9926
各大	-9927
听了	-9928
宽阔	-9929
干脆	-9930
平缓	-9931
度过	-9932
必将	-9933
快乐	-9934
技术	-9935
折磨	-9936
拉格	-9937
摩斯	-9938
擒住	-9939
教授	-9940
昨日	-9941
晶体	-9942
滚烫	-9943
灾变	-9944
爵士	-9945
玉玑	-9946
留意	-9947
畜生	-9948
盒子	-9949
福州	-9950
紧迫	-9951
继承	-9952
脸蛋	-9953
蓝衣	-9954
薄薄	-9955
血丹	-9956
血池	-9957
袖口	-9958
警戒	-9959
谁也	-9960
谷尼	-9961
身受	-9962
这能	-9963
追查	-9964
造化	-9965
那具	-9966
重创	-9967
飞舞	-9968
鱼人	-9969
▁整个	-9970
一人道	-9971
一次次	-9972
不过是	-9973
也不想	-9974
了一件	-9975
了很多	-9976
了我的	-9977
似乎也	-9978
咚咚咚	-9979
嘀咕道	-9980
塞西玛	-9981
奥拉维	-9982
寻找到	-9983
小心点	-9984
心理学	-9985
我们会	-9986
旅行家	-9987
的地面	-9988
的尊名	-9989
的日记	-9990
的目的	-9991
的话题	-9992
盘坐在	-9993
看台上	-9994
这是在	-9995
遇见了	-9996
那萧炎	-9997
▁萧炎的	-9998
▁这让他	-9999
一件事情	-10000
他的目光	-10001
出了一条	-10002
华山派的	-10003
原本以为	-10004
否则的话	-10005
小医仙与	-10006
提升实力	-10007
是何等的	-10008
涌现而出	-10009
白银城的	-10010
的声音里	-10011
目光一扫	-10012
石台之上	-10013
耐心等待	-10014
能够炼制	-10015
脸色微变	-10016
许久之后	-10017
话音未落	-10018
踏着虚空	-10019
金银二老	-10020
除此之外	-10021
飓风中将	-10022
克莱恩突然	-10023
管家瓦尔特	-10024
无数道目光的注视下	-10025
!)	-10026
。,	-10027
一举	-10028
一战	-10029
丛中	-10030
两团	-10031
书签	-10032
亚麻	-10033
从这	-10034
停住	-10035
先将	-10036
八星	-10037
兽火	-10038
助学	-10039
十八	-10040
同事	-10041
噼里	-10042
困境	-10043
天花	-10044
奇妙	-10045
她对	-10046
如雷	-10047
审讯	-10048
小辈	-10049
就不	-10050
府邸	-10051
开山	-10052
强光	-10053
怒气	-10054
恶心	-10055
或多	-10056
抿嘴	-10057
拿上	-10058
挤出	-10059
施加	-10060
映入	-10061
杀的	-10062
梅庄	-10063
比伯	-10064
沙哑	-10065
洋洋	-10066
玄金	-10067
瓦解	-10068
私下	-10069
结实	-10070
而行	-10071
胜负	-10072
艾因	-10073
花街	-10074
讪讪	-10075
讲解	-10076
身亡	-10077
身的	-10078
阳台	-10079
▁可惜	-10080
不超过	-10081
不过他	-10082
个小时	-10083
他竟然	-10084
再如何	-10085
凶猛的	-10086
占据了	-10087
又一道	-10088
同一个	-10089
后不久	-10090
回想起	-10091
太师叔	-10092
好几次	-10093
对他的	-10094
干净净	-10095
星斗灵	-10096
有的是	-10097
清晰的	-10098
灰袍人	-10099
玄金雷	-10100
画了个	-10101
的了解	-10102
确实是	-10103
舍不得	-10104
苦修士	-10105
蕴藏着	-10106
街道上	-10107
辰天南	-10108
释放着	-10109
▁多里安	-10110
你知道的	-10111
克莱恩从	-10112
半圣强者	-10113
咳了一声	-10114
微微闪烁	-10115
成了一个	-10116
有着一抹	-10117
片刻时间	-10118
的笑了笑	-10119
目光也是	-10120
笑着说道	-10121
纹丝不动	-10122
艾因霍恩	-10123
这个单词	-10124
不可能的事	-10125
去灰雾之上	-10126
戴里克伯格	-10127
灵魂力量的	-10128
克莱恩忍不住	-10129
▁蕾妮特缇尼科尔	-10130
一派	-10131
一脚	-10132
一言	-10133
一辆	-10134
不容	-10135
不掉	-10136
不胜	-10137
丹王	-10138
互换	-10139
兰娜	-10140
冷艳	-10141
几日	-10142
利维	-10143
到那	-10144
北区	-10145
叠加	-10146
吸星	-10147
喊声	-10148
嗡嗡	-10149
增幅	-10150
如水	-10151
尽了	-10152
巨殿	-10153
希德	-10154
年来	-10155
忍住	-10156
悠然	-10157
战利	-10158
手来	-10159
抓着	-10160
抢在	-10161
提防	-10162
无礼	-10163
显露	-10164
晃动	-10165
枫城	-10166
正神	-10167
流水	-10168
满头	-10169
火柴	-10170
炙烤	-10171
着脸	-10172
硬碰	-10173
确切	-10174
神功	-10175
积攒	-10176
窗边	-10177
窥探	-10178
站于	-10179
紫霞	-10180
能将	-10181
莫非	-10182
行至	-10183
认可	-10184
起床	-10185
转眼	-10186
长大	-10187
障碍	-10188
静默	-10189
面目	-10190
高明	-10191
魂风	-10192
黯然	-10193
▁场中	-10194
▁难道	-10195
下午镇	-10196
不就是	-10197
介绍道	-10198
但依旧	-10199
其实是	-10200
出现过	-10201
前面的	-10202
化生火	-10203
十几名	-10204
卡拉曼	-10205
和序列	-10206
就行了	-10207
我还是	-10208
找回了	-10209
投入了	-10210
斗灵丹	-10211
最近的	-10212
然后才	-10213
的奇异	-10214
的神话	-10215
紫色的	-10216
融血丹	-10217
血皇帝	-10218
表面上	-10219
训练场	-10220
这番话	-10221
退出了	-10222
选拔赛	-10223
▁第六百	-10224
不好意思	-10225
从未见过	-10226
卡斯兰娜	-10227
噼里啪啦	-10228
带着几分	-10229
干干净净	-10230
弗雷格拉	-10231
拳头之上	-10232
摩斯苦修	-10233
斗皇巅峰	-10234
格拉西斯	-10235
森林之中	-10236
浪费时间	-10237
联想到了	-10238
能够看见	-10239
自己身上	-10240
进入内院	-10241
远古遗迹	-10242
通玄长老	-10243
隐秘存在	-10244
顿时有些	-10245
并没有什么	-10246
货真价实的	-10247
克莱恩脑海内	-10248
福生玄黄天尊	-10249
自其体内暴涌而出	-10250
▁周	-10251
▁噗	-10252
▁是	-10253
一截	-10254
五派	-10255
仍是	-10256
他来	-10257
保守	-10258
六星	-10259
冷气	-10260
十米	-10261
反手	-10262
咫尺	-10263
多么	-10264
多月	-10265
天阶	-10266
女郎	-10267
安妮	-10268
家主	-10269
很高	-10270
心虚	-10271
惊动	-10272
我与	-10273
我才	-10274
或少	-10275
找人	-10276
拔剑	-10277
挑了	-10278
掌中	-10279
放牧	-10280
教区	-10281
洪水	-10282
的了	-10283
相见	-10284
眼球	-10285
纳尔	-10286
茶水	-10287
说法	-10288
车队	-10289
这团	-10290
隔断	-10291
马上	-10292
黑尺	-10293
不过你	-10294
冲进了	-10295
口袋里	-10296
后者的	-10297
周围那	-10298
天北城	-10299
天魔蟒	-10300
微眯着	-10301
我爹爹	-10302
战利品	-10303
手掌上	-10304
提出了	-10305
握了握	-10306
更接近	-10307
有人在	-10308
根蜡烛	-10309
浮现出	-10310
的不同	-10311
的作用	-10312
的怪物	-10313
的深红	-10314
的落下	-10315
的那份	-10316
的阴影	-10317
看不出	-10318
第四十	-10319
莉莉丝	-10320
虽然他	-10321
融入了	-10322
话语中	-10323
还以为	-10324
这都是	-10325
避开了	-10326
钻入了	-10327
一步一步	-10328
九玄金雷	-10329
但却并未	-10330
低下脑袋	-10331
克莱恩对	-10332
几乎是在	-10333
助学基金	-10334
却是令得	-10335
发出一声	-10336
咬着红唇	-10337
在地面上	-10338
带着许些	-10339
微微一颤	-10340
桃干仙道	-10341
没有说话	-10342
空间之中	-10343
绝对不能	-10344
而其身形	-10345
▁克莱恩没	-10346
发生的事情	-10347
天毒蝎龙兽	-10348
安德森胡德	-10349
求保底月票	-10350
也是点了点头	-10351
埃德萨克王子	-10352
▁萧炎点了点头	-10353
灰雾之上的神秘	-10354
集体潜意识大海	-10355
安提哥努斯家族的	-10356
缓缓的吐了一口气	-10357
;”	-10358
一红	-10359
一间	-10360
不易	-10361
不满	-10362
众目	-10363
做个	-10364
剧变	-10365
加强	-10366
动容	-10367
名叫	-10368
名额	-10369
咀嚼	-10370
和善	-10371
国家	-10372
圆满	-10373
城邦	-10374
大步	-10375
天怒	-10376
守则	-10377
安然	-10378
安稳	-10379
宾客	-10380
射向	-10381
托着	-10382
招手	-10383
指甲	-10384
斯维	-10385
时常	-10386
是了	-10387
曲线	-10388
木盆	-10389
本尊	-10390
极有	-10391
模拟	-10392
此番	-10393
死尸	-10394
照顾	-10395
界限	-10396
眼花	-10397
瞧的	-10398
祭祀	-10399
笑得	-10400
粗糙	-10401
精准	-10402
纸条	-10403
联想	-10404
肉体	-10405
肖像	-10406
膝盖	-10407
菩萨	-10408
袖子	-10409
让开	-10410
赫尔	-10411
轨迹	-10412
转告	-10413
进步	-10414
连同	-10415
那次	-10416
郑萼	-10417
▁于是	-10418
▁它的	-10419
一下就	-10420
中传出	-10421
了一抹	-10422
他的话	-10423
低语道	-10424
你这个	-10425
俏脸上	-10426
克拉格	-10427
和他的	-10428
回归了	-10429
在体内	-10430
大侦探	-10431
大大的	-10432
夫人的	-10433
对我们	-10434
将会是	-10435
小尼姑	-10436
就这般	-10437
干甚么	-10438
张开了	-10439
我怎么	-10440
杀了他	-10441
没发现	-10442
淡漠的	-10443
狮冥宗	-10444
电转间	-10445
的佣兵	-10446
的大战	-10447
的形象	-10448
的药方	-10449
的诱惑	-10450
的资料	-10451
的青铜	-10452
的黑夜	-10453
盛长老	-10454
目标的	-10455
睁开眼	-10456
第二十	-10457
考特曼	-10458
蓝凤凰	-10459
都不敢	-10460
门口处	-10461
阴沉的	-10462
..."	-10463
一模一样	-10464
不置可否	-10465
也是极为	-10466
众人便是	-10467
和克莱恩	-10468
嘿嘿笑道	-10469
在天空上	-10470
我明白了	-10471
或多或少	-10472
比我想象	-10473
水银之蛇	-10474
目光扫过	-10475
突然响起	-10476
能量波动	-10477
萧炎三人	-10478
萧炎缓缓	-10479
血脉之力	-10480
那么容易	-10481
那婆婆道	-10482
那般模样	-10483
闪掠而过	-10484
额头之上	-10485
居高临下的	-10486
格莱林特子爵	-10487
”......	-10488
一套	-10489
一抓	-10490
三次	-10491
不短	-10492
人在	-10493
仗着	-10494
体乳	-10495
作家	-10496
便好	-10497
入侵	-10498
刺痛	-10499
劲道	-10500
卡西	-10501
可真	-10502
右臂	-10503
埃莱	-10504
妖女	-10505
孔洞	-10506
寥寥	-10507
就当	-10508
左臂	-10509
已有	-10510
幽黑	-10511
快走	-10512
情景	-10513
愣愣	-10514
把我	-10515
护身	-10516
方位	-10517
无耻	-10518
早上	-10519
暗沉	-10520
暗藏	-10521
权利	-10522
案件	-10523
森森	-10524
欺骗	-10525
毒药	-10526
流星	-10527
火芒	-10528
灯光	-10529
热血	-10530
玄丹	-10531
白天	-10532
白帮	-10533
相识	-10534
石梯	-10535
秘笈	-10536
稀薄	-10537
窜出	-10538
美食	-10539
聊天	-10540
苦苦	-10541
血宗	-10542
袅袅	-10543
西开	-10544
言道	-10545
认同	-10546
谷中	-10547
超乎	-10548
迎接	-10549
长裤	-10550
阴狠	-10551
飘渺	-10552
▁既然	-10553
▁紫研	-10554
▁脚步	-10555
▁这一	-10556
▁除了	-10557
▁黑色	-10558
上一些	-10559
不少的	-10560
了两下	-10561
了几个	-10562
他们所	-10563
件物品	-10564
克特拉	-10565
冷漠的	-10566
加入了	-10567
卡西米	-10568
可若是	-10569
和他们	-10570
如果能	-10571
应该能	-10572
建筑物	-10573
惊骇的	-10574
拿起了	-10575
梅纳德	-10576
正确的	-10577
火灵蛇	-10578
的信使	-10579
的剑法	-10580
的温度	-10581
的种种	-10582
纳斯特	-10583
而在其	-10584
自然会	-10585
虽然这	-10586
解除了	-10587
赫拉斯	-10588
蹬蹬蹬	-10589
还不如	-10590
这还是	-10591
这里有	-10592
遇上了	-10593
额头上	-10594
三年时间	-10595
三种异火	-10596
不可避免	-10597
其他地方	-10598
冷冷的道	-10599
几乎已经	-10600
别的事情	-10601
即便如此	-10602
变成了一	-10603
大厅之中	-10604
幸运的是	-10605
桃枝仙道	-10606
生物毒素	-10607
的小女孩	-10608
看了萧炎	-10609
看得出来	-10610
空想之龙	-10611
穿着黑色	-10612
那样的话	-10613
高级执事	-10614
可不是什么	-10615
埃莱克特拉	-10616
实在是有些	-10617
显得格外的	-10618
一筹	-10619
七神	-10620
不尽	-10621
严厉	-10622
主峰	-10623
亲手	-10624
今年	-10625
以便	-10626
你好	-10627
偏向	-10628
减缓	-10629
发丝	-10630
取了	-10631
古特	-10632
吃亏	-10633
合并	-10634
后遗	-10635
哭笑	-10636
喷吐	-10637
好手	-10638
寒颤	-10639
山涧	-10640
巨型	-10641
布雷	-10642
干瘦	-10643
心态	-10644
总归	-10645
惶恐	-10646
扇门	-10647
扳机	-10648
抛弃	-10649
捏了	-10650
朝前	-10651
极致	-10652
法术	-10653
深坑	-10654
煅烧	-10655
狞笑	-10656
狡诈	-10657
甩了	-10658
瞟了	-10659
硬币	-10660
空隙	-10661
竟是	-10662
缓解	-10663
虚眯	-10664
误会	-10665
跃下	-10666
路程	-10667
这在	-10668
逃出	-10669
通红	-10670
重现	-10671
重组	-10672
铭刻	-10673
青丝	-10674
顶峰	-10675
▁他要	-10676
▁身形	-10677
。’’	-10678
不会是	-10679
了一丝	-10680
任何的	-10681
但却是	-10682
低下头	-10683
出声道	-10684
布雷恩	-10685
弗纳尔	-10686
悠闲地	-10687
我觉得	-10688
施展了	-10689
桃枝仙	-10690
比先前	-10691
清楚了	-10692
的喝声	-10693
的最后	-10694
着一张	-10695
答应了	-10696
给你们	-10697
而至于	-10698
苏长老	-10699
萧炎地	-10700
还不是	-10701
迷雾海	-10702
▁左冷禅	-10703
▁魂天帝	-10704
不动声色	-10705
似乎也是	-10706
全黑之眼	-10707
却是陡然	-10708
嘴角微微	-10709
天门道人	-10710
头人长老	-10711
感觉自己	-10712
我们可以	-10713
斗帝强者	-10714
斗灵强者	-10715
服食魔药	-10716
条件反射	-10717
火焰风暴	-10718
灵界掠夺	-10719
的小医仙	-10720
的过程中	-10721
经脉之中	-10722
般的存在	-10723
药老也是	-10724
莽荒古域	-10725
萧炎也不	-10726
萧炎对着	-10727
非凡途径	-10728
▁听得此话	-10729
不少人都是	-10730
想起了什么	-10731
揉了揉额角	-10732
时间的推移	-10733
毫不犹豫就	-10734
燕尾服小丑	-10735
的格尔曼斯帕罗	-10736
长长的吐了一口气	-10737
一跳	-10738
不眠	-10739
世间	-10740
主角	-10741
九剑	-10742
便先	-10743
傲慢	-10744
光滑	-10745
凶名	-10746
分割	-10747
功劳	-10748
变色	-10749
只道	-10750
啊哟	-10751
嗜血	-10752
嘴里	-10753
噬金	-10754
它是	-10755
宴会	-10756
寒冷	-10757
师徒	-10758
心焰	-10759
抬了	-10760
抿了	-10761
担任	-10762
拉住	-10763
按开	-10764
搜查	-10765
教士	-10766
时辰	-10767
明知	-10768
桃叶	-10769
毒雾	-10770
比之	-10771
比你	-10772
溢出	-10773
火花	-10774
琳菲	-10775
瘦削	-10776
的传	-10777
着手	-10778
竖起	-10779
苛刻	-10780
落于	-10781
落雁	-10782
触摸	-10783
走下	-10784
那三	-10785
那场	-10786
邻居	-10787
锤炼	-10788
阳炎	-10789
附加	-10790
项链	-10791
不相同	-10792
从怀中	-10793
以你的	-10794
你不要	-10795
你刚才	-10796
倒也不	-10797
克雷斯	-10798
到极致	-10799
唐火儿	-10800
噬金鼠	-10801
在地面	-10802
在经过	-10803
守护者	-10804
当初的	-10805
得罪了	-10806
我二人	-10807
我最近	-10808
我还有	-10809
放在了	-10810
无边无	-10811
柔软的	-10812
玄冥宗	-10813
的就是	-10814
的眼神	-10815
确认了	-10816
美丽的	-10817
群弟子	-10818
萧炎轻	-10819
让你们	-10820
让对方	-10821
说不出	-10822
读心者	-10823
锋利的	-10824
黑木崖	-10825
两种异火	-10826
克雷斯泰	-10827
六品丹药	-10828
周围区域	-10829
对于他们	-10830
层层叠叠	-10831
抓紧时间	-10832
有些感到	-10833
爆发而出	-10834
白色火焰	-10835
缓缓的在	-10836
能量涟漪	-10837
赏金猎人	-10838
造成什么	-10839
随身携带	-10840
隐匿贤者	-10841
黑角域中	-10842
了一个问题	-10843
小心翼翼地	-10844
某种程度上	-10845
沉吟了片刻	-10846
级别的强者	-10847
一千	-10848
三星	-10849
上百	-10850
下降	-10851
丰满	-10852
丹香	-10853
了半	-10854
他用	-10855
住所	-10856
作者	-10857
剑柄	-10858
剧情	-10859
双倍	-10860
只想	-10861
向你	-10862
吧台	-10863
大惊	-10864
夫妻	-10865
威风	-10866
定会	-10867
忏悔	-10868
戏法	-10869
扑通	-10870
拉扯	-10871
搜索	-10872
搭配	-10873
救命	-10874
教唆	-10875
无所	-10876
早早	-10877
明眸	-10878
极崩	-10879
沉凝	-10880
洪立	-10881
浑浊	-10882
游走	-10883
漠城	-10884
灯神	-10885
特兰	-10886
的真	-10887
睽睽	-10888
紧缩	-10889
缓和	-10890
老衲	-10891
背心	-10892
藤蔓	-10893
血刀	-10894
西区	-10895
见她	-10896
课程	-10897
贫民	-10898
越多	-10899
越想	-10900
越高	-10901
轻挥	-10902
透出	-10903
郊外	-10904
铁棍	-10905
青灵	-10906
音乐	-10907
顶着	-10908
频率	-10909
频繁	-10910
高处	-10911
龙卷	-10912
▁此刻	-10913
▁还好	-10914
不算太	-10915
与对方	-10916
了大半	-10917
刺眼的	-10918
加起来	-10919
变异的	-10920
所凝聚	-10921
摆放着	-10922
有了个	-10923
杀人案	-10924
桃根仙	-10925
海心焰	-10926
的一名	-10927
的准备	-10928
的地下	-10929
的局面	-10930
的来历	-10931
的行动	-10932
的那名	-10933
的颜色	-10934
相信我	-10935
红祭司	-10936
若真是	-10937
衣兜里	-10938
被封印	-10939
这两位	-10940
这个人	-10941
金发红	-10942
了下眼睛	-10943
他们能够	-10944
令狐冲和	-10945
众目睽睽	-10946
变得更加	-10947
古龙一族	-10948
吃了一惊	-10949
天目山脉	-10950
所需要的	-10951
收入纳戒	-10952
桃花仙道	-10953
灰衣老者	-10954
生命学派	-10955
砰的一声	-10956
究竟是何	-10957
苦笑一声	-10958
赤火长老	-10959
远远看去	-10960
随时可能	-10961
▁随着萧炎	-10962
伟大的主人	-10963
在萧炎心中	-10964
抬头望着那	-10965
死亡执政官	-10966
生物毒素瓶	-10967
的年轻男子	-10968
紧皱着眉头	-10969
难以言喻的	-10970
6,	-10971
▁轻	-10972
一夜	-10973
一紧	-10974
七遍	-10975
上升	-10976
不乏	-10977
两枚	-10978
两秒	-10979
两米	-10980
之味	-10981
也已	-10982
二位	-10983
交接	-10984
人体	-10985
低吼	-10986
冲撞	-10987
凡森	-10988
勇敢	-10989
十六	-10990
却没	-10991
反映	-10992
取而	-10993
只用	-10994
名词	-10995
后怕	-10996
壮硕	-10997
大名	-10998
大楚	-10999
大脑	-11000
妖艳	-11001
嫌疑	-11002
察看	-11003
尸身	-11004
底细	-11005
执法	-11006
拉入	-11007
掉头	-11008
推理	-11009
暗劲	-11010
更像	-11011
柠檬	-11012
活的	-11013
海底	-11014
海王	-11015
淋淋	-11016
激发	-11017
火柱	-11018
灰眸	-11019
灵族	-11020
煞队	-11021
猎捕	-11022
疯了	-11023
瘟疫	-11024
眺望	-11025
睫毛	-11026
紧跟	-11027
红发	-11028
约而	-11029
结晶	-11030
翻涌	-11031
脸的	-11032
苏笑	-11033
苓儿	-11034
落神	-11035
血精	-11036
要好	-11037
路人	-11038
钟镇	-11039
青海	-11040
颤动	-11041
▁之前	-11042
▁仪琳	-11043
万金币	-11044
不过那	-11045
了这个	-11046
但没有	-11047
你便是	-11048
八极崩	-11049
可以在	-11050
可能的	-11051
坦西斯	-11052
夏尔夫	-11053
威尔逊	-11054
对不起	-11055
将所有	-11056
居然会	-11057
年轻的	-11058
当然是	-11059
很危险	-11060
方证道	-11061
未必能	-11062
比自己	-11063
清楚地	-11064
甩了甩	-11065
甲板上	-11066
的魔药	-11067
直接就	-11068
瞬间就	-11069
转了转	-11070
这说明	-11071
雪白的	-11072
2049	-11073
▁也就是	-11074
一名身着	-11075
万火长老	-11076
下意识就	-11077
不过可惜	-11078
丹塔老祖	-11079
叹了一声	-11080
因为如此	-11081
大吃一惊	-11082
很多事情	-11083
成为一名	-11084
沉声说道	-11085
的一部分	-11086
眉头微微	-11087
自言自语	-11088
近在咫尺	-11089
这座城市	-11090
这是什么	-11091
这等实力	-11092
那庞大的	-11093
黄泉天怒	-11094
坦西斯二世	-11095
安静了下来	-11096
我也不知道	-11097
所在的方向	-11098
斗气大陆上	-11099
星斗圣后期	-11100
身上扫了扫	-11101
克拉格俱乐部	-11102
1,	-11103
一甩	-11104
一统	-11105
不假	-11106
不透	-11107
临死	-11108
为他	-11109
九星	-11110
交握	-11111
你再	-11112
侠盗	-11113
关节	-11114
兽域	-11115
冥河	-11116
冰层	-11117
分配	-11118
切磋	-11119
初期	-11120
千丈	-11121
南海	-11122
在的	-11123
多个	-11124
天生	-11125
奔涌	-11126
奖励	-11127
屏蔽	-11128
形的	-11129
微沉	-11130
惨遭	-11131
想的	-11132
把他	-11133
抱有	-11134
措手	-11135
敏感	-11136
散的	-11137
杂草	-11138
死灵	-11139
每日	-11140
沧桑	-11141
消退	-11142
淡去	-11143
渲染	-11144
猎杀	-11145
碰触	-11146
紫金	-11147
老大	-11148
而后	-11149
耸立	-11150
肩头	-11151
药丸	-11152
蛮横	-11153
赶去	-11154
轻巧	-11155
遵守	-11156
门的	-11157
隐含	-11158
面露	-11159
骨的	-11160
▁手指	-11161
▁这让	-11162
交给你	-11163
从对方	-11164
他终于	-11165
他虽然	-11166
付出了	-11167
仲裁人	-11168
似乎还	-11169
但这种	-11170
凸肚窗	-11171
出一张	-11172
制造出	-11173
剑尊者	-11174
去哪里	-11175
嘴角微	-11176
四天尊	-11177
回复了	-11178
好东西	-11179
好几个	-11180
实际上	-11181
就是连	-11182
开始吧	-11183
得更加	-11184
恐怕是	-11185
我打算	-11186
拍卖师	-11187
是一条	-11188
是甚么	-11189
棕色的	-11190
残留着	-11191
没有人	-11192
现在就	-11193
的学员	-11194
相关的	-11195
约而同	-11196
美好的	-11197
胖药师	-11198
菩提子	-11199
萧炎从	-11200
萧炎这	-11201
还可以	-11202
这是他	-11203
遇到了	-11204
那原本	-11205
那样的	-11206
隐藏的	-11207
▁艾尔兰	-11208
一把抓住	-11209
从天而降	-11210
你这小子	-11211
刚欲说话	-11212
喷了出来	-11213
声音响起	-11214
弗萨克语	-11215
是真正的	-11216
没有办法	-11217
爆炸而开	-11218
的一声响	-11219
能够让得	-11220
萧炎身形	-11221
骂了一声	-11222
▁萧炎面色	-11223
令狐冲心想	-11224
占卜俱乐部	-11225
惊天动地的	-11226
所在的位置	-11227
笑了一声道	-11228
见到这一幕	-11229
了一个又一个	-11230
萧炎微微点头	-11231
%%	-11232
一凝	-11233
一轮	-11234
七大	-11235
三老	-11236
不分	-11237
不幸	-11238
不老	-11239
之河	-11240
书亚	-11241
仇恨	-11242
以一	-11243
倾斜	-11244
八品	-11245
决断	-11246
力丹	-11247
友善	-11248
叫你	-11249
喜爱	-11250
嘶吼	-11251
在上	-11252
地从	-11253
城镇	-11254
塔中	-11255
大树	-11256
好久	-11257
嫁接	-11258
少了	-11259
差别	-11260
干掉	-11261
异象	-11262
强化	-11263
德拉	-11264
恼怒	-11265
打发	-11266
扫向	-11267
换作	-11268
掌风	-11269
掺杂	-11270
收尸	-11271
放进	-11272
教众	-11273
散开	-11274
更无	-11275
来做	-11276
毛发	-11277
浩荡	-11278
湿润	-11279
琢磨	-11280
生平	-11281
生病	-11282
用意	-11283
皮箱	-11284
相反	-11285
相处	-11286
知名	-11287
碍于	-11288
神庙	-11289
纸币	-11290
练剑	-11291
缩回	-11292
胡子	-11293
能从	-11294
舌帽	-11295
萧廷	-11296
赫蒙	-11297
走入	-11298
走在	-11299
银子	-11300
雷纳	-11301
领结	-11302
从来没	-11303
他应该	-11304
令得她	-11305
但至少	-11306
取而代	-11307
叹息着	-11308
在这般	-11309
地想道	-11310
多谢了	-11311
大丈夫	-11312
实在太	-11313
得令人	-11314
房间中	-11315
把自己	-11316
来回踱	-11317
桃实仙	-11318
激动的	-11319
王八蛋	-11320
的报酬	-11321
的注视	-11322
的猜测	-11323
看见那	-11324
第五纪	-11325
约书亚	-11326
绝对的	-11327
缭绕在	-11328
罕见的	-11329
联想到	-11330
胸口处	-11331
这位是	-11332
里面有	-11333
长出了	-11334
隐约间	-11335
鲍大楚	-11336
鸭舌帽	-11337
黑暗里	-11338
黑魔雷	-11339
“0—0	-11340
▁几乎是	-11341
▁短暂的	-11342
不约而同	-11343
也是一怔	-11344
也是犹如	-11345
五星斗尊	-11346
五海之王	-11347
他没想到	-11348
如果真是	-11349
岳夫人道	-11350
成为序列	-11351
手中长剑	-11352
拿出了一	-11353
措手不及	-11354
皆是有些	-11355
而且还是	-11356
脸色却是	-11357
舒了口气	-11358
萧炎眼睛	-11359
这道念头	-11360
▁天空之上	-11361
▁如果不是	-11362
▁想到此处	-11363
一个又一个	-11364
之间的差距	-11365
到灰雾之上	-11366
无声自语道	-11367
灰白的雾气	-11368
点了下头道	-11369
苏千大长老	-11370
万万	-11371
万药	-11372
不差	-11373
不被	-11374
为我	-11375
为敌	-11376
主的	-11377
之国	-11378
也无	-11379
也被	-11380
低调	-11381
你别	-11382
便道	-11383
协助	-11384
单人	-11385
变强	-11386
古斯	-11387
可还	-11388
后山	-11389
城外	-11390
天凰	-11391
好感	-11392
威势	-11393
寒冰	-11394
小人	-11395
小道	-11396
尖叫	-11397
尸骨	-11398
展示	-11399
山道	-11400
带领	-11401
总督	-11402
惊又	-11403
懒腰	-11404
挥出	-11405
捂住	-11406
捎了	-11407
推动	-11408
故作	-11409
文献	-11410
死者	-11411
残酷	-11412
毛骨	-11413
水波	-11414
沟壑	-11415
泽尔	-11416
狒狒	-11417
用处	-11418
的伤	-11419
矗立	-11420
离火	-11421
稀奇	-11422
糟糕	-11423
结构	-11424
考试	-11425
近了	-11426
还望	-11427
追击	-11428
通报	-11429
陨石	-11430
飘散	-11431
黑云	-11432
齐全	-11433
▁其中	-11434
一开始	-11435
不像是	-11436
丹塔的	-11437
也只有	-11438
也并非	-11439
了一处	-11440
了一层	-11441
他只能	-11442
你必须	-11443
倒并未	-11444
六兄弟	-11445
其身后	-11446
冥河盟	-11447
凡森特	-11448
副殿主	-11449
却并不	-11450
只要能	-11451
史蒂夫	-11452
合适的	-11453
后遗症	-11454
塔戈尔	-11455
失声道	-11456
奥古斯	-11457
家族中	-11458
强猛的	-11459
恭敬的	-11460
想知道	-11461
我当时	-11462
捏了捏	-11463
暴风雨	-11464
有效的	-11465
本身就	-11466
淬体乳	-11467
熟练地	-11468
的不是	-11469
的地点	-11470
的漆黑	-11471
的薰儿	-11472
的说法	-11473
笼罩在	-11474
紧跟着	-11475
药老那	-11476
落神涧	-11477
行礼道	-11478
行走于	-11479
跺地面	-11480
霎时间	-11481
黑之王	-11482
▁一道道	-11483
▁岳灵珊	-11484
周围的人	-11485
塔索克河	-11486
塔罗会的	-11487
并不陌生	-11488
恐怕将会	-11489
把握到了	-11490
旋即迅速	-11491
灌注进入	-11492
灵魂之力	-11493
精神一振	-11494
自然是要	-11495
若是萧炎	-11496
让自己的	-11497
雪魔天猿	-11498
非凡者的	-11499
▁话音落下	-11500
克莱恩看见	-11501
内部看守者	-11502
唯一的问题	-11503
在萧炎手中	-11504
在萧炎身旁	-11505
深吸一口气	-11506
瞥了他一眼	-11507
途径的半神	-11508
萧炎点了点头	-11509
▁帕列斯索罗亚斯德	-11510
7,	-11511
。\	-11512
一向	-11513
与这	-11514
亚恩	-11515
他便	-11516
他被	-11517
你一	-11518
全知	-11519
关切	-11520
冰灵	-11521
到我	-11522
刺出	-11523
功勋	-11524
十秒	-11525
压着	-11526
喷发	-11527
围绕	-11528
地板	-11529
壁炉	-11530
对那	-11531
射进	-11532
庇护	-11533
微光	-11534
您是	-11535
所未	-11536
手按	-11537
扩张	-11538
抓起	-11539
插入	-11540
敌意	-11541
是哪	-11542
有心	-11543
杀伐	-11544
正统	-11545
正门	-11546
漫长	-11547
皮靴	-11548
睁眼	-11549
空艇	-11550
红芒	-11551
肉块	-11552
脚底	-11553
自带	-11554
荣耀	-11555
虚化	-11556
认输	-11557
谎言	-11558
貌似	-11559
负手	-11560
赶往	-11561
踌躇	-11562
轻视	-11563
遍布	-11564
销售	-11565
高低	-11566
,"”	-11567
▁借助	-11568
一声道	-11569
与自己	-11570
主人的	-11571
也清楚	-11572
了一座	-11573
于身后	-11574
交易会	-11575
他不是	-11576
他曾经	-11577
修炼了	-11578
偶尔会	-11579
其余的	-11580
卡拉特	-11581
却依旧	-11582
另一位	-11583
可能会	-11584
和自己	-11585
在外面	-11586
在旁边	-11587
定然是	-11588
层面的	-11589
思考起	-11590
慕兰谷	-11591
持有者	-11592
振动着	-11593
捎了捎	-11594
接过了	-11595
桌面上	-11596
由衷地	-11597
的事实	-11598
的心态	-11599
的气质	-11600
的深处	-11601
的画面	-11602
的疯狂	-11603
的眷者	-11604
的血迹	-11605
的表面	-11606
的银色	-11607
第六十	-11608
而且那	-11609
而如今	-11610
足够了	-11611
这属于	-11612
面前这	-11613
预定的	-11614
飞空艇	-11615
默尔索	-11616
▁白银城	-11617
一个不慎	-11618
一眼望去	-11619
两道人影	-11620
中央位置	-11621
他在心里	-11622
似乎已经	-11623
做好准备	-11624
全身盔甲	-11625
几道身影	-11626
前段时间	-11627
反应过来	-11628
回想起了	-11629
太阳胸针	-11630
威廉姆斯	-11631
宛如实质	-11632
心念一动	-11633
房间内的	-11634
手中重尺	-11635
手掌缓缓	-11636
抚着胡须	-11637
拳头紧握	-11638
提供帮助	-11639
斗破苍穹	-11640
暗红色的	-11641
有着几分	-11642
略感诧异	-11643
瞬间之后	-11644
突然出现	-11645
立刻便是	-11646
这样的话	-11647
这等强者	-11648
▁望着萧炎	-11649
三纹青灵丹	-11650
不知不觉间	-11651
亚恩考特曼	-11652
喃喃了一声	-11653
在萧炎面前	-11654
对应的序列	-11655
自然不可能	-11656
自然是能够	-11657
黄金梦想号	-11658
便是化为一道	-11659
离开贝克兰德	-11660
米特尔拍卖场	-11661
埃莱克特拉主教	-11662
苦笑着点了点头	-11663
,,	-11664
一星	-11665
不等	-11666
两边	-11667
乔伊	-11668
书册	-11669
五位	-11670
他人	-11671
依赖	-11672
值守	-11673
光束	-11674
入手	-11675
八个	-11676
八翼	-11677
六品	-11678
再做	-11679
凶芒	-11680
切割	-11681
南方	-11682
占星	-11683
口的	-11684
向往	-11685
听从	-11686
味的	-11687
呼喊	-11688
嘲笑	-11689
囚禁	-11690
四道	-11691
地人	-11692
垃圾	-11693
外院	-11694
夜空	-11695
大大	-11696
大腿	-11697
头的	-11698
头脑	-11699
妖凰	-11700
孤独	-11701
山坡	-11702
幽静	-11703
引发	-11704
思过	-11705
手势	-11706
手机	-11707
手法	-11708
抹除	-11709
拉里	-11710
挖掘	-11711
掀开	-11712
斯蒂	-11713
是由	-11714
有位	-11715
欢愉	-11716
残缺	-11717
没错	-11718
添加	-11719
滑落	-11720
火翼	-11721
灼热	-11722
生前	-11723
生长	-11724
的圣	-11725
相战	-11726
而你	-11727
荡开	-11728
落幕	-11729
落进	-11730
血战	-11731
袖中	-11732
褪去	-11733
诚实	-11734
身周	-11735
辨认	-11736
阵法	-11737
难逃	-11738
雪曼	-11739
面庞	-11740
马匹	-11741
驱散	-11742
黑帮	-11743
▁现在	-11744
一会儿	-11745
一眼道	-11746
不排除	-11747
乔伊斯	-11748
了无数	-11749
人群中	-11750
你不会	-11751
半神半	-11752
古南海	-11753
在一个	-11754
在一定	-11755
在里面	-11756
好奇地	-11757
对于那	-11758
尔斯顿	-11759
山洞中	-11760
德尔劳	-11761
急促的	-11762
恐怕连	-11763
成虚无	-11764
是序列	-11765
浮现于	-11766
混沌海	-11767
清楚楚	-11768
灰蒙蒙	-11769
的城市	-11770
的房门	-11771
的炼制	-11772
的脸颊	-11773
的重要	-11774
的高层	-11775
目前的	-11776
竟然敢	-11777
美眸中	-11778
而这些	-11779
能直接	-11780
菩提心	-11781
被他们	-11782
赫长老	-11783
身上下	-11784
过来了	-11785
这是一	-11786
黑影人	-11787
▁海柔尔	-11788
世界先生	-11789
丹王古河	-11790
也是一名	-11791
也是不敢	-11792
克莱恩才	-11793
却并没有	-11794
奥古斯都	-11795
对自己的	-11796
将自己的	-11797
希尔斯顿	-11798
很感兴趣	-11799
微微一愣	-11800
恒山派的	-11801
所过之处	-11802
抿了一口	-11803
浮现出了	-11804
清清楚楚	-11805
狠狠的砸	-11806
的声音中	-11807
的火属性	-11808
瞄了一眼	-11809
碧绿色的	-11810
突然有着	-11811
第一百零	-11812
萧炎再度	-11813
萧炎脚步	-11814
转移到了	-11815
这种方式	-11816
逐渐变得	-11817
飞行斗技	-11818
变成了一个	-11819
得干干净净	-11820
摩斯苦修会	-11821
百丈庞大的	-11822
的中年男子	-11823
表现出来的	-11824
这个世界上	-11825
图坦西斯二世	-11826
萧炎心头也是	-11827
黑夜女神教会	-11828
4,	-11829
sè	-11830
两点	-11831
主持	-11832
乎乎	-11833
九凤	-11834
五六	-11835
人士	-11836
你没	-11837
修改	-11838
倒下	-11839
倔强	-11840
假人	-11841
入体	-11842
几百	-11843
击溃	-11844
分心	-11845
刚有	-11846
创建	-11847
去看	-11848
发觉	-11849
和那	-11850
在座	-11851
坐姿	-11852
堪比	-11853
夜里	-11854
天境	-11855
妖异	-11856
宽慰	-11857
尺影	-11858
岂不	-11859
崩塌	-11860
差错	-11861
常见	-11862
弱点	-11863
投注	-11864
抽了	-11865
拉米	-11866
拖着	-11867
掠上	-11868
本该	-11869
杀你	-11870
来源	-11871
枯燥	-11872
格雷	-11873
桌旁	-11874
残魂	-11875
毫升	-11876
水仙	-11877
水准	-11878
永暗	-11879
洗漱	-11880
淡蓝	-11881
深洞	-11882
混账	-11883
满溢	-11884
用它	-11885
的的	-11886
目露	-11887
精油	-11888
肌肤	-11889
视觉	-11890
跳了	-11891
身姿	-11892
轻风	-11893
过手	-11894
运者	-11895
还差	-11896
连通	-11897
野心	-11898
阿泰	-11899
隔了	-11900
领取	-11901
黄阶	-11902
▁古元	-11903
▁视线	-11904
与药老	-11905
两个人	-11906
中州上	-11907
了一张	-11908
了对方	-11909
交出来	-11910
他只是	-11911
他必须	-11912
凝望着	-11913
可如今	-11914
向大哥	-11915
哒哒哒	-11916
在这些	-11917
天花板	-11918
希伯特	-11919
我无法	-11920
拉米克	-11921
旋即那	-11922
是自己	-11923
是萧炎	-11924
有了些	-11925
有时候	-11926
条途径	-11927
极强的	-11928
柔声道	-11929
残留的	-11930
治安官	-11931
燃烧着	-11932
生命力	-11933
的一员	-11934
的一次	-11935
的口吻	-11936
的性子	-11937
的掌控	-11938
的自己	-11939
的那片	-11940
的高温	-11941
第七十	-11942
第二块	-11943
第五十	-11944
第八十	-11945
背负着	-11946
行走在	-11947
见到这	-11948
诱人的	-11949
还只是	-11950
还有些	-11951
进来的	-11952
通过了	-11953
造成了	-11954
都不能	-11955
黑压压	-11956
上下打量	-11957
上前两步	-11958
不戒和尚	-11959
不过还好	-11960
仅仅只能	-11961
今日之事	-11962
却是已经	-11963
却是缓缓	-11964
历史投影	-11965
只有这样	-11966
吸星大法	-11967
命运天使	-11968
和令狐冲	-11969
哭笑不得	-11970
女王陛下	-11971
对于这些	-11972
斗气双翼	-11973
方才逐渐	-11974
最后一个	-11975
正常来说	-11976
死寂之门	-11977
沉声喝道	-11978
漆黑色的	-11979
的大长老	-11980
能够达到	-11981
脸颊上的	-11982
萧炎眼眸	-11983
萧炎笑道	-11984
认为自己	-11985
霍拉米克	-11986
饶有兴致	-11987
▁这个瞬间	-11988
堕落造物主	-11989
对于萧炎的	-11990
弥漫而出的	-11991
微微点头道	-11992
扭曲的空间	-11993
波动了起来	-11994
萧炎的举动	-11995
还未来得及	-11996
▁不等克莱恩	-11997
用古赫密斯语	-11998
看了萧炎一眼	-11999
这片神秘空间	-12000
’......	-12001
一抬	-12002
七位	-12003
不妨	-12004
两女	-12005
之强	-12006
之犬	-12007
也敢	-12008
乱石	-12009
但对	-12010
便请	-12011
傲气	-12012
僻静	-12013
光球	-12014
全然	-12015
全能	-12016
典籍	-12017
到此	-12018
到这	-12019
匆忙	-12020
半只	-12021
反扑	-12022
取过	-12023
同道	-12024
吻合	-12025
坐直	-12026
太高	-12027
头颅	-12028
奔腾	-12029
好啊	-12030
学会	-12031
家中	-12032
将要	-12033
尔曼	-12034
山峦	-12035
崩解	-12036
帮他	-12037
弹射	-12038
急于	-12039
急切	-12040
恭声	-12041
惩戒	-12042
愉悦	-12043
成神	-12044
手足	-12045
拉夫	-12046
撤退	-12047
新闻	-12048
机器	-12049
涌来	-12050
炎烬	-12051
牵引	-12052
相交	-12053
真能	-12054
破空	-12055
神国	-12056
稳固	-12057
突发	-12058
考古	-12059
胜算	-12060
胳膊	-12061
自当	-12062
蒙力	-12063
蚕茧	-12064
蜷缩	-12065
行踪	-12066
裁判	-12067
解答	-12068
资金	-12069
转换	-12070
这处	-12071
逃生	-12072
采用	-12073
防护	-12074
障壁	-12075
驱除	-12076
驾驭	-12077
骂声	-12078
!’’	-12079
▁几秒	-12080
▁沉默	-12081
▁火焰	-12082
一巴掌	-12083
也是要	-12084
了许久	-12085
从他们	-12086
他一直	-12087
佐特兰	-12088
便是要	-12089
便是那	-12090
倒在地	-12091
冲着他	-12092
又惊又	-12093
口鲜血	-12094
四方阁	-12095
大势力	-12096
察觉的	-12097
将视线	-12098
就会被	-12099
左掌门	-12100
并且还	-12101
恐怕就	-12102
掌握的	-12103
教堂内	-12104
是如何	-12105
望向那	-12106
死在了	-12107
沙发上	-12108
漫长的	-12109
玉玑子	-12110
留下来	-12111
的下落	-12112
的双眼	-12113
的所在	-12114
的真正	-12115
的紫研	-12116
的配方	-12117
的防御	-12118
瞟了瞟	-12119
矗立在	-12120
窃运者	-12121
等物品	-12122
能看见	-12123
脚踏车	-12124
起身来	-12125
跟他们	-12126
达不到	-12127
进行着	-12128
迪西海	-12129
那一直	-12130
都难以	-12131
008”	-12132
▁任我行	-12133
▁那就是	-12134
上了一层	-12135
上前一步	-12136
两位师太	-12137
举行仪式	-12138
也是悄然	-12139
全部都是	-12140
内心深处	-12141
冲天而起	-12142
凝重的道	-12143
厉声喝道	-12144
塔罗会上	-12145
执掌好运	-12146
掠过许些	-12147
海洋歌者	-12148
由此可见	-12149
的小家伙	-12150
的黑袍人	-12151
皱起眉头	-12152
眉头也是	-12153
脸色苍白	-12154
萧炎眼神	-12155
这个任务	-12156
这种程度	-12157
面色都是	-12158
▁坦白地讲	-12159
▁话音一落	-12160
便走出现在	-12161
克莱恩暗自	-12162
即便是萧炎	-12163
地摇了摇头	-12164
暴掠而来的	-12165
真正的强者	-12166
萧炎一行人	-12167
左右看了一眼	-12168
亚伯拉罕家族的	-12169
帕特里克布雷恩	-12170
面面相觑了一眼	-12171
......”,	-12172
##	-12173
▁深	-12174
三花	-12175
不通	-12176
两周	-12177
两根	-12178
丰厚	-12179
伴生	-12180
关押	-12181
再者	-12182
再见	-12183
出人	-12184
前三	-12185
区仙	-12186
厚重	-12187
双排	-12188
反向	-12189
可在	-12190
呆呆	-12191
周日	-12192
呼呼	-12193
和休	-12194
因姆	-12195
土地	-12196
够了	-12197
奥利	-12198
寒暄	-12199
尼姆	-12200
已久	-12201
已在	-12202
希纳	-12203
帕莎	-12204
干的	-12205
开心	-12206
弯身	-12207
恶劣	-12208
想去	-12209
意愿	-12210
感官	-12211
执意	-12212
拥挤	-12213
掠来	-12214
救了	-12215
整洁	-12216
枢机	-12217
梦里	-12218
气场	-12219
气泡	-12220
没说	-12221
法子	-12222
浓雾	-12223
清雅	-12224
渺小	-12225
火把	-12226
烙毒	-12227
烟斗	-12228
王座	-12229
盘膝	-12230
相仿	-12231
相遇	-12232
眉宇	-12233
眼窝	-12234
碧蛇	-12235
磕头	-12236
社交	-12237
窗口	-12238
箱子	-12239
糅合	-12240
美酒	-12241
翘起	-12242
老妪	-12243
衣帽	-12244
见得	-12245
费尽	-12246
身在	-12247
远比	-12248
金刚	-12249
降服	-12250
鼓起	-12251
▁得到	-12252
▁缓缓	-12253
▁还有	-12254
▁这么	-12255
不眠者	-12256
不知该	-12257
不过我	-12258
也不要	-12259
了一顿	-12260
他相信	-12261
似也是	-12262
但毕竟	-12263
使劲的	-12264
做好了	-12265
努力地	-12266
双排扣	-12267
向自己	-12268
在天空	-12269
地上的	-12270
大家都	-12271
将手中	-12272
小时候	-12273
希纳姆	-12274
幕场景	-12275
平静地	-12276
彼此间	-12277
我所知	-12278
拉夫特	-12279
握住了	-12280
时天使	-12281
有任何	-12282
泽瑞尔	-12283
海因姆	-12284
海盗们	-12285
爱好者	-12286
甚至还	-12287
的事件	-12288
的要求	-12289
的选择	-12290
着一条	-12291
竞技场	-12292
竟然连	-12293
第二层	-12294
简直是	-12295
纯粹的	-12296
给萧炎	-12297
蠕动着	-12298
西里斯	-12299
许多人	-12300
这种人	-12301
都是要	-12302
▁他刚才	-12303
▁见到这	-12304
三大教会	-12305
三大龙王	-12306
不再那么	-12307
不是寻常	-12308
也就不再	-12309
五品丹药	-12310
便在此时	-12311
即便是他	-12312
对我来说	-12313
小心一些	-12314
尽数包裹	-12315
左轮手枪	-12316
带起一股	-12317
席卷而开	-12318
微微一缩	-12319
我们必须	-12320
我还以为	-12321
抹了一把	-12322
抹去嘴角	-12323
枢机主教	-12324
模糊身影	-12325
永暗之河	-12326
灵魂深处	-12327
独孤九剑	-12328
甚至可能	-12329
皱着眉头	-12330
着自己的	-12331
稳住身形	-12332
胸膛之上	-12333
说点什么	-12334
轰隆隆的	-12335
迪西海湾	-12336
黑暗深处	-12337
▁心中闪过	-12338
克莱恩一阵	-12339
加玛帝国的	-12340
感叹了一句	-12341
斟酌着说道	-12342
眨了眨眼睛	-12343
自然是知道	-12344
难看了起来	-12345
神话生物形态	-12346
不知什么时候已	-12347
▁很	-12348
▁话	-12349
一扇	-12350
一提	-12351
一翻	-12352
不但	-12353
不妙	-12354
不甚	-12355
两下	-12356
之徒	-12357
九龙	-12358
五道	-12359
亮的	-12360
伴随	-12361
余地	-12362
兽潮	-12363
再无	-12364
写着	-12365
凛然	-12366
凶戾	-12367
加剧	-12368
十个	-12369
半身	-12370
卡片	-12371
厚实	-12372
双拳	-12373
双瞳	-12374
取走	-12375
古籍	-12376
叮叮	-12377
叶城	-12378
同门	-12379
唏嘘	-12380
四五	-12381
大刀	-12382
奇物	-12383
奉献	-12384
好人	-12385
尼拜	-12386
山上	-12387
并肩	-12388
成果	-12389
我一	-12390
招来	-12391
拾起	-12392
换上	-12393
探手	-12394
支柱	-12395
斯诺	-12396
早点	-12397
明净	-12398
暗器	-12399
杨皓	-12400
每隔	-12401
水面	-12402
求购	-12403
没被	-12404
活了	-12405
游身	-12406
灰暗	-12407
焦虑	-12408
特色	-12409
王元	-12410
现下	-12411
相距	-12412
眼眶	-12413
类的	-12414
红脸	-12415
约约	-12416
统一	-12417
翻阅	-12418
脱身	-12419
节制	-12420
行者	-12421
衣着	-12422
装饰	-12423
迫切	-12424
追上	-12425
追寻	-12426
那老	-12427
都将	-12428
铜片	-12429
锐利	-12430
门铃	-12431
露面	-12432
▁心神	-12433
。。。	-12434
一起去	-12435
不简单	-12436
世界里	-12437
为之一	-12438
也可能	-12439
仔细的	-12440
他怎么	-12441
你似乎	-12442
切米尔	-12443
刚开始	-12444
到序列	-12445
可真是	-12446
喜欢的	-12447
尼拜斯	-12448
山峰上	-12449
开口了	-12450
很不错	-12451
得意的	-12452
手套的	-12453
拿着一	-12454
提供的	-12455
敌人的	-12456
是否会	-12457
更加的	-12458
本来就	-12459
正常人	-12460
状态下	-12461
猛的自	-12462
生物的	-12463
的人流	-12464
的头发	-12465
的宫殿	-12466
的生物	-12467
的黑影	-12468
皆是在	-12469
看向了	-12470
空想家	-12471
聚会的	-12472
脚掌一	-12473
若是要	-12474
让他的	-12475
转移到	-12476
过一次	-12477
过去了	-12478
这之中	-12479
这些事	-12480
遥远的	-12481
陡然间	-12482
颇有点	-12483
▁他看见	-12484
▁淡淡的	-12485
▁第五百	-12486
一些事情	-12487
一年时间	-12488
一阵波动	-12489
不必要的	-12490
也没什么	-12491
了一会后	-12492
倒的确是	-12493
克莱恩让	-12494
八翼黑蛇	-12495
出了一抹	-12496
却是有着	-12497
去了哪里	-12498
地阶斗技	-12499
山峰之上	-12500
开口说道	-12501
怀疑自己	-12502
想到此处	-12503
极光会的	-12504
某个地方	-12505
的大人物	-12506
碧蛇三花	-12507
空间波动	-12508
竟然如此	-12509
笑了起来	-12510
萧炎一笑	-12511
赞美女神	-12512
随口问道	-12513
隐隐约约	-12514
高希纳姆	-12515
黄泉妖圣	-12516
克莱恩看着	-12517
在这种时候	-12518
根本不可能	-12519
的神话生物	-12520
第一百三十	-12521
78	-12522
”:	-12523
一干	-12524
一滞	-12525
上层	-12526
上流	-12527
不许	-12528
丹顿	-12529
为其	-12530
之顶	-12531
产物	-12532
伊姆	-12533
你所	-12534
做起	-12535
千里	-12536
协调	-12537
变动	-12538
只在	-12539
同为	-12540
唐鹰	-12541
啸声	-12542
嘱咐	-12543
土著	-12544
在前	-12545
地毯	-12546
天冥	-12547
失态	-12548
如玉	-12549
字体	-12550
对战	-12551
巨手	-12552
巴巴	-12553
常理	-12554
开放	-12555
张望	-12556
弱小	-12557
心跳	-12558
成人	-12559
撕扯	-12560
无恙	-12561
无限	-12562
晚了	-12563
染着	-12564
欲聋	-12565
死于	-12566
毁了	-12567
沉静	-12568
派出	-12569
清水	-12570
狗屎	-12571
疲倦	-12572
的外	-12573
直观	-12574
瞥着	-12575
窜进	-12576
等同	-12577
精进	-12578
缺陷	-12579
耀眼	-12580
背部	-12581
脱掉	-12582
蓝眼	-12583
蜈崖	-12584
讨好	-12585
让祂	-12586
说我	-12587
谢震	-12588
跑了	-12589
身怀	-12590
过道	-12591
这与	-12592
迷失	-12593
遵循	-12594
那群	-12595
钻石	-12596
间海	-12597
震耳	-12598
青白	-12599
预定	-12600
飞射	-12601
骇浪	-12602
鬼魂	-12603
▁坐在	-12604
▁戴莉	-12605
一咬牙	-12606
上不少	-12607
下一个	-12608
不会被	-12609
不死的	-12610
以及那	-12611
仿佛被	-12612
刺耳的	-12613
努力的	-12614
古怪的	-12615
吞噬了	-12616
在地上	-12617
地下室	-12618
地实力	-12619
基本上	-12620
多年的	-12621
女神的	-12622
她也是	-12623
好像是	-12624
布满了	-12625
平日里	-12626
应该会	-12627
当年在	-12628
想象中	-12629
放到了	-12630
是我们	-12631
有价值	-12632
流淌着	-12633
混乱的	-12634
清了清	-12635
犹如那	-12636
猎捕赛	-12637
的大殿	-12638
的封印	-12639
的庞大	-12640
的族人	-12641
的绅士	-12642
的范围	-12643
的衣物	-12644
的麻烦	-12645
直接从	-12646
石漠城	-12647
细细的	-12648
考伊姆	-12649
裙女子	-12650
西大陆	-12651
魔兽的	-12652
不受控制	-12653
不知何时	-12654
两名老者	-12655
之外行去	-12656
从来没有	-12657
佐特兰街	-12658
刚刚出现	-12659
到了一个	-12660
可却依然	-12661
因为他们	-12662
头皮发麻	-12663
女神庇佑	-12664
小医仙的	-12665
岩枭先生	-12666
岩浆之中	-12667
工作人员	-12668
抓住机会	-12669
日月神教	-12670
有些疑惑	-12671
极为恐怖	-12672
瑞尔比伯	-12673
空间之力	-12674
简单来说	-12675
脚掌之上	-12676
苍老声音	-12677
虽说如今	-12678
那么便是	-12679
魂殿强者	-12680
▁听得这话	-12681
▁艾德雯娜	-12682
保持着沉默	-12683
地心淬体乳	-12684
白色的火焰	-12685
碧蛇三花瞳	-12686
萧炎的肩膀	-12687
连环杀人案	-12688
▁这个过程里	-12689
微微摇了摇头	-12690
慈善助学基金	-12691
无奈的点了点头	-12692
▁萧炎微微点了点头	-12693
一二	-12694
一问	-12695
万分	-12696
不便	-12697
丢进	-12698
中断	-12699
之风	-12700
书信	-12701
了搓	-12702
亡者	-12703
交集	-12704
会员	-12705
但其	-12706
便知	-12707
借着	-12708
全无	-12709
剑宗	-12710
却已	-12711
又被	-12712
后脑	-12713
含义	-12714
困扰	-12715
型的	-12716
埋葬	-12717
城门	-12718
完善	-12719
封闭	-12720
尘埃	-12721
尺身	-12722
尽皆	-12723
屹立	-12724
希斯	-12725
平台	-12726
幸好	-12727
当先	-12728
当其	-12729
悬吊	-12730
情势	-12731
戴好	-12732
把这	-12733
拖住	-12734
拳风	-12735
推断	-12736
早在	-12737
晶壁	-12738
智商	-12739
曲洋	-12740
有大	-12741
杂种	-12742
来来	-12743
洛耀	-12744
消云	-12745
溜溜	-12746
火炫	-12747
狡猾	-12748
独角	-12749
猛烈	-12750
生日	-12751
目不	-12752
神农	-12753
纱衣	-12754
绳索	-12755
肆虐	-12756
腹部	-12757
若不	-12758
表哥	-12759
解药	-12760
诈骗	-12761
诺斯	-12762
资深	-12763
走得	-12764
连退	-12765
通识	-12766
钻入	-12767
银镜	-12768
长辈	-12769
长鞭	-12770
问候	-12771
顾忌	-12772
鬓角	-12773
黑气	-12774
!”“	-12775
▁序列	-12776
▁砰砰	-12777
▁萧玄	-12778
▁那名	-12779
丹会的	-12780
他们会	-12781
出手了	-12782
半点的	-12783
发现的	-12784
只眼睛	-12785
回荡于	-12786
因此在	-12787
墙壁上	-12788
奇特的	-12789
如果我	-12790
实力在	-12791
对着他	-12792
左盟主	-12793
房间的	-12794
挑了挑	-12795
敲响了	-12796
斯诺曼	-12797
旋转着	-12798
是为了	-12799
是怎么	-12800
是我的	-12801
桃花仙	-12802
森然道	-12803
点点头	-12804
烟消云	-12805
的一块	-12806
的手指	-12807
的来源	-12808
的男人	-12809
的眸子	-12810
的老人	-12811
置身于	-12812
老前辈	-12813
而这种	-12814
艾格斯	-12815
要看看	-12816
认识的	-12817
跳了跳	-12818
那不是	-12819
闪电般	-12820
静静地	-12821
风兄弟	-12822
骤然间	-12823
▁这是他	-12824
不断的在	-12825
不知如何	-12826
不过所幸	-12827
侧头望向	-12828
克莱恩已	-12829
准备好了	-12830
到得现在	-12831
喃喃自语	-12832
山脉之中	-12833
带着些许	-12834
幅度很小	-12835
据我所知	-12836
炼药大师	-12837
特别是在	-12838
目光望着	-12839
能够进入	-12840
萧炎只得	-12841
萧炎少爷	-12842
蔓延而开	-12843
这种等级	-12844
震耳欲聋	-12845
▁感受着那	-12846
克莱恩一下	-12847
八翼黑蛇皇	-12848
清了清喉咙	-12849
清楚的知道	-12850
炼药师大会	-12851
的黄黑之王	-12852
自然是不会	-12853
足够的时间	-12854
这个小家伙	-12855
▁他话音刚落	-12856
周一求月票推荐票	-12857
执掌好运的黄黑之王	-12858
▁好	-12859
一共	-12860
一尊	-12861
万年	-12862
不含	-12863
严浩	-12864
中毒	-12865
之举	-12866
仿若	-12867
伸展	-12868
住在	-12869
余波	-12870
信封	-12871
光头	-12872
几种	-12873
千陌	-12874
博雅	-12875
卷毛	-12876
厚厚	-12877
反弹	-12878
古真	-12879
品尝	-12880
嘴上	-12881
墓碑	-12882
她才	-12883
妖暝	-12884
宁愿	-12885
宇宙	-12886
射来	-12887
尖刺	-12888
就着	-12889
巨嘴	-12890
平凡	-12891
异议	-12892
弯下	-12893
快了	-12894
忽有	-12895
急躁	-12896
所需	-12897
托斯	-12898
找回	-12899
拧动	-12900
挡住	-12901
摇曳	-12902
攀升	-12903
数目	-12904
无头	-12905
昂贵	-12906
显眼	-12907
暴虐	-12908
更换	-12909
果断	-12910
横扫	-12911
欺负	-12912
此举	-12913
洗手	-12914
浪潮	-12915
珠体	-12916
的我	-12917
皮制	-12918
直射	-12919
直起	-12920
碰到	-12921
穿上	-12922
端倪	-12923
筹码	-12924
简陋	-12925
管道	-12926
紫光	-12927
肢体	-12928
苦头	-12929
荒芜	-12930
莱特	-12931
蒙妮	-12932
蜘蛛	-12933
衡量	-12934
见闻	-12935
该当	-12936
越好	-12937
路的	-12938
还原	-12939
追问	-12940
雇员	-12941
预兆	-12942
高贵	-12943
黑衫	-12944
▁念头	-12945
一辈子	-12946
体内那	-12947
写下了	-12948
刚才那	-12949
到了那	-12950
博雅尔	-12951
只是想	-12952
只见那	-12953
可不会	-12954
嘴角一	-12955
在一块	-12956
在手中	-12957
基金会	-12958
大门处	-12959
太阳穴	-12960
心头的	-12961
忌惮的	-12962
我祈求	-12963
抽了抽	-12964
拉开了	-12965
拿出一	-12966
接一个	-12967
接触过	-12968
放下了	-12969
是否能	-12970
有一位	-12971
有能力	-12972
朗声道	-12973
楼梯口	-12974
死亡的	-12975
流浪汉	-12976
火晶卡	-12977
的一片	-12978
的一面	-12979
的敌人	-12980
相同的	-12981
瞬息间	-12982
确定了	-12983
萧鼎与	-12984
西蒙妮	-12985
覆盖着	-12986
警察局	-12987
起来了	-12988
转过了	-12989
这一下	-12990
那少女	-12991
长时间	-12992
龙泽尔	-12993
▁望着这	-12994
其他成员	-12995
只不过是	-12996
吗克莱恩	-12997
天地之间	-12998
奥黛丽的	-12999
就是一个	-13000
带着一丝	-13001
应该知道	-13002
微笑说道	-13003
映照出了	-13004
暗金色的	-13005
有所动作	-13006
此刻也是	-13007
水仙花街	-13008
潮水般的	-13009
炼制成功	-13010
烟消云散	-13011
神职人员	-13012
精神污染	-13013
缓缓的从	-13014
萧炎再次	-13015
走了过去	-13016
超级强者	-13017
身受重伤	-13018
身法斗技	-13019
还有一个	-13020
那自然是	-13021
一道道身影	-13022
七品炼药师	-13023
地点了下头	-13024
就是不知道	-13025
希尔斯顿区	-13026
悄无声息的	-13027
沉默了下来	-13028
没有太大的	-13029
灵界掠夺者	-13030
绝对不可能	-13031
逐渐的变得	-13032
那位造物主	-13033
众目睽睽之下	-13034
忍不住的有些	-13035
欧内斯博雅尔	-13036
萧炎眉头微皱	-13037
进入修炼状态	-13038
▁格尔曼斯帕罗	-13039
略微迟疑了一下	-13040
肉眼可见的速度	-13041
1”	-13042
“”	-13043
▁用	-13044
▁的	-13045
三月	-13046
不合	-13047
不来	-13048
不答	-13049
不虚	-13050
两份	-13051
两日	-13052
之多	-13053
五仙	-13054
交替	-13055
人头	-13056
以我	-13057
但若	-13058
余人	-13059
修建	-13060
光了	-13061
入睡	-13062
八族	-13063
内伤	-13064
再问	-13065
刁钻	-13066
分化	-13067
利润	-13068
前冲	-13069
加深	-13070
北域	-13071
博格	-13072
占了	-13073
去吧	-13074
又在	-13075
古图	-13076
右眼	-13077
咂了	-13078
咂嘴	-13079
哗然	-13080
喘着	-13081
回味	-13082
坊主	-13083
坑洞	-13084
天尺	-13085
委屈	-13086
宗内	-13087
密封	-13088
寻觅	-13089
少见	-13090
尔安	-13091
就和	-13092
就该	-13093
底蕴	-13094
延续	-13095
弄焰	-13096
彩色	-13097
往日	-13098
怨灵	-13099
惭愧	-13100
我叫	-13101
托勒	-13102
扭动	-13103
把它	-13104
折好	-13105
报警	-13106
拳击	-13107
按了	-13108
挥霍	-13109
换个	-13110
掩嘴	-13111
措施	-13112
摩擦	-13113
效率	-13114
杀他	-13115
民俗	-13116
沼泽	-13117
涌入	-13118
湖水	-13119
火的	-13120
炫耀	-13121
牛肉	-13122
看重	-13123
神智	-13124
神灯	-13125
精通	-13126
系统	-13127
继而	-13128
肆无	-13129
虚拟	-13130
调和	-13131
走着	-13132
起码	-13133
跃出	-13134
这笔	-13135
重大	-13136
野蛮	-13137
错过	-13138
陪伴	-13139
雕刻	-13140
颤了	-13141
高达	-13142
麻痹	-13143
黑点	-13144
▁同时	-13145
▁寂静	-13146
▁面对	-13147
一只手	-13148
也有着	-13149
云岚山	-13150
从某种	-13151
从这里	-13152
以他们	-13153
以往的	-13154
休息室	-13155
伪装成	-13156
你倒是	-13157
你师父	-13158
别墅内	-13159
制造的	-13160
十几道	-13161
博格达	-13162
古斯塔	-13163
可以用	-13164
可现在	-13165
呈现出	-13166
回去吧	-13167
在身前	-13168
在那种	-13169
天墓之	-13170
女人的	-13171
如果不	-13172
如果他	-13173
完全没	-13174
就是在	-13175
弄焰决	-13176
惊呼声	-13177
意料的	-13178
操纵师	-13179
支队伍	-13180
斗破的	-13181
曾经是	-13182
最强的	-13183
根本不	-13184
比以前	-13185
游身尺	-13186
特别的	-13187
白衬衣	-13188
的保护	-13189
的劲气	-13190
的心灵	-13191
的药力	-13192
着问道	-13193
砰砰砰	-13194
老妖怪	-13195
而后者	-13196
肯定能	-13197
能得到	-13198
自然地	-13199
还是先	-13200
迟早会	-13201
长礼服	-13202
霎那间	-13203
顿在了	-13204
风眷者	-13205
魂千陌	-13206
龙力丹	-13207
!!!!	-13208
5000	-13209
▁...	-13210
▁接下来	-13211
一声低喝	-13212
七品丹药	-13213
也是瞬间	-13214
什么也没	-13215
倒还真是	-13216
卷毛狒狒	-13217
古斯塔夫	-13218
圣赛琳娜	-13219
在克莱恩	-13220
尖顶软帽	-13221
已经开始	-13222
微微一沉	-13223
慕兰三老	-13224
房间之内	-13225
手印一变	-13226
扫了一眼	-13227
捎了捎头	-13228
炼药师的	-13229
熊熊燃烧	-13230
狠狠的轰	-13231
的主材料	-13232
磅礴斗气	-13233
神战遗迹	-13234
空空荡荡	-13235
身体上的	-13236
转向萧炎	-13237
金属小瓶	-13238
顿时响起	-13239
魂殿的人	-13240
黑衣男子	-13241
▁霍然之间	-13242
休和佛尔思	-13243
出现了一个	-13244
出现在萧炎	-13245
所在的方位	-13246
查尼斯门后	-13247
然而还不待	-13248
现在的实力	-13249
瞥了一眼那	-13250
考伊姆公司	-13251
舔了舔嘴唇	-13252
还没来得及	-13253
这么多年来	-13254
一名斗宗强者	-13255
也是浮现一抹	-13256
抓住这个机会	-13257
清晰的感觉到	-13258
狠狠的对着萧炎	-13259
贝克兰德大雾霾	-13260
贴身男仆理查德森	-13261
▁萧炎笑着点了点头	-13262
,-	-13263
▁据	-13264
一批	-13265
一栋	-13266
三枚	-13267
上校	-13268
不散	-13269
两把	-13270
两色	-13271
个子	-13272
中等	-13273
主导	-13274
久了	-13275
了声	-13276
事的	-13277
人马	-13278
仰头	-13279
伦斯	-13280
使剑	-13281
例子	-13282
凝成	-13283
凰轩	-13284
博物	-13285
厄阿	-13286
又将	-13287
反观	-13288
可行	-13289
向上	-13290
吸入	-13291
圆形	-13292
夏莽	-13293
完好	-13294
寒雾	-13295
就让	-13296
工具	-13297
得手	-13298
得过	-13299
心来	-13300
念叨	-13301
感动	-13302
扫动	-13303
扭了	-13304
投降	-13305
拉尔	-13306
摇摇	-13307
收取	-13308
断续	-13309
无情	-13310
明智	-13311
来往	-13312
林子	-13313
活力	-13314
游荡	-13315
湖面	-13316
满心	-13317
看你	-13318
石制	-13319
积蓄	-13320
纯露	-13321
自有	-13322
荣幸	-13323
行驶	-13324
被动	-13325
要紧	-13326
诱饵	-13327
谁知	-13328
赞道	-13329
输入	-13330
追捕	-13331
送上	-13332
醒悟	-13333
锦袍	-13334
长条	-13335
闷雷	-13336
阶层	-13337
青石	-13338
静止	-13339
面临	-13340
黑岩	-13341
一切的	-13342
与之前	-13343
你爹爹	-13344
使用的	-13345
保持住	-13346
具备了	-13347
动手吧	-13348
勇敢者	-13349
历史的	-13350
去寻找	-13351
咆哮声	-13352
大灾变	-13353
她心中	-13354
将这个	-13355
常见的	-13356
应该也	-13357
很重要	-13358
惨白的	-13359
想要的	-13360
我怀疑	-13361
接受了	-13362
搓了搓	-13363
收尸人	-13364
斯厄阿	-13365
时间了	-13366
星灵体	-13367
本源果	-13368
杀意的	-13369
桥区域	-13370
消化完	-13371
消化掉	-13372
王元霸	-13373
电报局	-13374
的中年	-13375
的功法	-13376
的纸张	-13377
的高级	-13378
真是太	-13379
能够让	-13380
薰儿的	-13381
血淋淋	-13382
警惕地	-13383
说出了	-13384
说话间	-13385
转化为	-13386
那弥漫	-13387
都必须	-13388
魔兽界	-13389
▁听得这	-13390
▁在众人	-13391
▁艾辛格	-13392
一分一秒	-13393
七品高级	-13394
三大家族	-13395
不死之王	-13396
不过这种	-13397
两年时间	-13398
伸出手掌	-13399
你有什么	-13400
利维希德	-13401
和马里奇	-13402
在此之前	-13403
就意味着	-13404
惊雷般的	-13405
整个中州	-13406
斗圣骨骸	-13407
斗帝血脉	-13408
斗气铠甲	-13409
有些诧异	-13410
本身实力	-13411
此刻的他	-13412
略作沉吟	-13413
白银之城	-13414
的时间中	-13415
破风之声	-13416
红衣少女	-13417
缓缓浮现	-13418
背后双翼	-13419
脸色阴沉	-13420
脸色顿时	-13421
若有若无	-13422
西北大陆	-13423
该怎么做	-13424
负手而立	-13425
走了进来	-13426
超凡生物	-13427
转了一圈	-13428
这些年的	-13429
黑袍老者	-13430
一次又一次	-13431
五岳派掌门	-13432
低沉开口道	-13433
先生的眷者	-13434
古弗萨克语	-13435
多里安格雷	-13436
打了个寒颤	-13437
拳头大小的	-13438
持续了约莫	-13439
没有半点的	-13440
~~	-13441
一代	-13442
一到	-13443
万载	-13444
不发	-13445
不理	-13446
不舍	-13447
不难	-13448
久久	-13449
之士	-13450
二章	-13451
五轮	-13452
亚娜	-13453
仍然	-13454
光洁	-13455
共和	-13456
冷厉	-13457
刀剑	-13458
包容	-13459
区区	-13460
厨师	-13461
变大	-13462
可怖	-13463
右脚	-13464
号令	-13465
合同	-13466
吸取	-13467
告别	-13468
咂舌	-13469
四大	-13470
围剿	-13471
均想	-13472
多想	-13473
头鹰	-13474
夹克	-13475
夺取	-13476
她又	-13477
好转	-13478
平平	-13479
幽海	-13480
床边	-13481
座位	-13482
开头	-13483
弥撒	-13484
惊涛	-13485
惨烈	-13486
愚弄	-13487
抱怨	-13488
抽动	-13489
抽离	-13490
拔高	-13491
拿了	-13492
摆出	-13493
摘下	-13494
放开	-13495
放着	-13496
整条	-13497
晚宴	-13498
有时	-13499
朝上	-13500
止住	-13501
此言	-13502
武学	-13503
求救	-13504
洛阳	-13505
洪流	-13506
渴求	-13507
潮汐	-13508
炎族	-13509
炸开	-13510
特定	-13511
生丹	-13512
生骨	-13513
百熊	-13514
的绝	-13515
皇极	-13516
相斗	-13517
瞧去	-13518
瞩目	-13519
短剑	-13520
神孽	-13521
秦绢	-13522
站直	-13523
结成	-13524
给的	-13525
苦恼	-13526
莲花	-13527
蝼蚁	-13528
被缚	-13529
被震	-13530
谁敢	-13531
赢了	-13532
这具	-13533
防止	-13534
额前	-13535
飘飞	-13536
魅惑	-13537
鸦雀	-13538
黑芒	-13539
▁只要	-13540
三年前	-13541
不仅是	-13542
不是说	-13543
了一名	-13544
二十多	-13545
从虚空	-13546
他可是	-13547
似乎已	-13548
但对于	-13549
制作的	-13550
却发现	-13551
却无法	-13552
变回了	-13553
吕尔安	-13554
吩咐道	-13555
圣教主	-13556
复仇者	-13557
大幅度	-13558
天蛇府	-13559
审讯者	-13560
对这个	-13561
师兄弟	-13562
并不少	-13563
忍住了	-13564
总觉得	-13565
感叹道	-13566
我也会	-13567
我并不	-13568
拉里昂	-13569
收到了	-13570
斯坦顿	-13571
无人的	-13572
是非常	-13573
每一处	-13574
沉默地	-13575
没急着	-13576
满脸的	-13577
猫头鹰	-13578
玻璃窗	-13579
的主意	-13580
的名声	-13581
的地底	-13582
的组织	-13583
的结局	-13584
的脸上	-13585
的调查	-13586
的金属	-13587
盘旋在	-13588
称得上	-13589
突然自	-13590
突然道	-13591
笑声中	-13592
笑容中	-13593
第九十	-13594
给我们	-13595
缭绕着	-13596
肖像画	-13597
肯定有	-13598
莉亚娜	-13599
虽然是	-13600
诵念道	-13601
还真的	-13602
连带着	-13603
陌生人	-13604
颤抖的	-13605
黑皇城	-13606
▁突然间	-13607
▁而就在	-13608
也是随之	-13609
书中世界	-13610
他们都是	-13611
似乎有点	-13612
侧过脑袋	-13613
便是这般	-13614
光之祭司	-13615
出了一些	-13616
化成了一	-13617
另外一侧	-13618
各种各样	-13619
咬着银牙	-13620
嗤的一声	-13621
四个脑袋	-13622
好片刻后	-13623
宫廷长裙	-13624
山谷之中	-13625
手掌一翻	-13626
整个身体	-13627
最后一次	-13628
望着那些	-13629
根本无法	-13630
桃实仙道	-13631
毛骨悚然	-13632
然后缓缓	-13633
猛的一变	-13634
玛丽夫人	-13635
甚至是连	-13636
皱了起来	-13637
相差不多	-13638
眼中顿时	-13639
祈祷光点	-13640
红衣女子	-13641
这些年中	-13642
这样一个	-13643
那恐怖的	-13644
震惊之色	-13645
鸦雀无声	-13646
“008”	-13647
▁对于萧炎	-13648
▁话音刚落	-13649
克莱恩迅速	-13650
德维尔爵士	-13651
成为非凡者	-13652
扭曲了起来	-13653
深吸了一口	-13654
现在的状态	-13655
谁也不知道	-13656
闭上了眼睛	-13657
面前的萧炎	-13658
魂殿副殿主	-13659
▁说话的同时	-13660
尊敬的愚者先生	-13661
1)	-13662
?,	-13663
一角	-13664
一页	-13665
上千	-13666
不高	-13667
举报	-13668
买了	-13669
五星	-13670
亚利	-13671
人口	-13672
人性	-13673
人海	-13674
休养	-13675
你吧	-13676
典雅	-13677
冷峻	-13678
出于	-13679
刷地	-13680
前任	-13681
功效	-13682
升高	-13683
半月	-13684
卷入	-13685
发疯	-13686
取代	-13687
口诀	-13688
名单	-13689
吞没	-13690
告诫	-13691
命中	-13692
和平	-13693
哈欠	-13694
哭泣	-13695
团团	-13696
在外	-13697
坏事	-13698
天真	-13699
女的	-13700
威德	-13701
它会	-13702
密集	-13703
心悸	-13704
想问	-13705
我从	-13706
所得	-13707
所铸	-13708
找了	-13709
投足	-13710
按捺	-13711
捂着	-13712
捣乱	-13713
摘掉	-13714
数丈	-13715
新书	-13716
新年	-13717
束手	-13718
柜台	-13719
步的	-13720
浓浓	-13721
清洗	-13722
滴答	-13723
潜伏	-13724
激战	-13725
牢笼	-13726
玫歌	-13727
的木	-13728
的蛇	-13729
短毛	-13730
穿了	-13731
答话	-13732
红光	-13733
美妇	-13734
舰队	-13735
荧光	-13736
药天	-13737
药粉	-13738
萦绕	-13739
覆灭	-13740
走来	-13741
越大	-13742
辉芒	-13743
近身	-13744
这副	-13745
遮住	-13746
重负	-13747
错觉	-13748
附带	-13749
非同	-13750
顾客	-13751
鲜艳	-13752
黝黑	-13753
▁原本	-13754
▁确认	-13755
▁等待	-13756
▁重尺	-13757
不太好	-13758
不符合	-13759
之一的	-13760
也不眨	-13761
他目光	-13762
会发生	-13763
做出的	-13764
六猴儿	-13765
其面前	-13766
准备好	-13767
几十名	-13768
勾勒出	-13769
十几米	-13770
发生的	-13771
发生过	-13772
可却是	-13773
在那些	-13774
声招呼	-13775
大圆满	-13776
帝印决	-13777
怎么说	-13778
我只能	-13779
我应该	-13780
打破了	-13781
按了按	-13782
方势力	-13783
无人敢	-13784
星斗师	-13785
最后被	-13786
消失的	-13787
炼制出	-13788
炼药界	-13789
猩红的	-13790
甚至于	-13791
的一条	-13792
的人们	-13793
的大汉	-13794
的打算	-13795
的神情	-13796
的缝隙	-13797
真是个	-13798
着他的	-13799
磨挲着	-13800
穿透了	-13801
童百熊	-13802
第二天	-13803
自萧炎	-13804
融合了	-13805
见到的	-13806
谢尔曼	-13807
这几天	-13808
这正是	-13809
重复起	-13810
高耸的	-13811
”===	-13812
▁下一秒	-13813
▁他们的	-13814
▁他原本	-13815
▁被萧炎	-13816
▁马里奇	-13817
一直都是	-13818
举手投足	-13819
了一道道	-13820
五轮离火	-13821
亚利斯塔	-13822
伦纳德和	-13823
你们可以	-13824
便是如同	-13825
八星斗尊	-13826
古帝洞府	-13827
回过头来	-13828
声音落下	-13829
奥尔米尔	-13830
居然也是	-13831
年轻男子	-13832
应该就是	-13833
弄清楚了	-13834
心中念头	-13835
心头却是	-13836
想做什么	-13837
所造成的	-13838
手指轻敲	-13839
文职人员	-13840
望着那在	-13841
来到这里	-13842
每一次的	-13843
灰白色的	-13844
猛然紧握	-13845
的房间内	-13846
空间都是	-13847
英雄好汉	-13848
褐色火焰	-13849
说不出的	-13850
负于身后	-13851
迅速变得	-13852
这样下去	-13853
▁霍尔伯爵	-13854
了一段时间	-13855
古老宫殿内	-13856
没什么表情	-13857
浮现出了一	-13858
第一百一十	-13859
若隐若现的	-13860
莫雷蒂先生	-13861
阴沉了下来	-13862
那片神秘空间	-13863
灰雾之上神秘空间	-13864
:”	-13865
一寒	-13866
一流	-13867
一瞥	-13868
一等	-13869
三楼	-13870
上身	-13871
下属	-13872
东切	-13873
个月	-13874
亲近	-13875
从我	-13876
伤痕	-13877
你得	-13878
修道	-13879
先后	-13880
克斯	-13881
凭你	-13882
出众	-13883
刚要	-13884
利益	-13885
剑气	-13886
千百	-13887
半张	-13888
口子	-13889
只盼	-13890
吞吞	-13891
唇角	-13892
嗓子	-13893
噗通	-13894
圣城	-13895
坏了	-13896
壮观	-13897
失声	-13898
夹杂	-13899
奴隶	-13900
娱乐	-13901
它能	-13902
封皮	-13903
屠杀	-13904
市民	-13905
帷幕	-13906
幻身	-13907
总计	-13908
慌忙	-13909
成交	-13910
打通	-13911
挂在	-13912
收了	-13913
文明	-13914
旋律	-13915
枯萎	-13916
桌球	-13917
步入	-13918
波澜	-13919
深色	-13920
温热	-13921
火暴	-13922
点亮	-13923
王家	-13924
玛瑙	-13925
的暗	-13926
着这	-13927
矜持	-13928
礼仪	-13929
神像	-13930
神谕	-13931
纵身	-13932
老婆	-13933
聚气	-13934
肋骨	-13935
腋下	-13936
腕部	-13937
自救	-13938
草坪	-13939
蒙特	-13940
袋里	-13941
被这	-13942
说他	-13943
质疑	-13944
这周	-13945
这天	-13946
钻出	-13947
降下	-13948
隐身	-13949
静室	-13950
骨髓	-13951
龙印	-13952
▁离开	-13953
▁科林	-13954
▁第一	-13955
一定会	-13956
中序列	-13957
主动地	-13958
也不好	-13959
事件的	-13960
人都是	-13961
做一次	-13962
准确地	-13963
刘长老	-13964
博物馆	-13965
噬生丹	-13966
在众人	-13967
地面的	-13968
大沙漠	-13969
小姐和	-13970
就直接	-13971
就等于	-13972
巨人的	-13973
开山印	-13974
得极为	-13975
我们是	-13976
我这个	-13977
护身符	-13978
指的是	-13979
掏出一	-13980
接近了	-13981
是一场	-13982
比以往	-13983
没直接	-13984
犹如被	-13985
的价值	-13986
的故事	-13987
的海盗	-13988
的特点	-13989
的笑意	-13990
的药老	-13991
的风格	-13992
的首领	-13993
皇极丹	-13994
看能否	-13995
眼眸中	-13996
破碎的	-13997
空间的	-13998
突破了	-13999
笑嘻嘻	-14000
纤细的	-14001
给对方	-14002
而那些	-14003
能量核	-14004
自己是	-14005
血族的	-14006
要显得	-14007
记住了	-14008
走入了	-14009
轻叹道	-14010
这一届	-14011
这三人	-14012
这对于	-14013
进了那	-14014
都会被	-14015
颤了颤	-14016
黄色的	-14017
▁同样的	-14018
▁此刻的	-14019
一股吸力	-14020
不断的从	-14021
不过现在	-14022
不过虽然	-14023
东切斯特	-14024
丹会冠军	-14025
九品玄丹	-14026
也是让得	-14027
做了什么	-14028
削瘦身影	-14029
发自内心	-14030
另外一名	-14031
咂了咂嘴	-14032
咧嘴一笑	-14033
噙着一抹	-14034
在了原地	-14035
对克莱恩	-14036
屈指轻弹	-14037
帝境灵魂	-14038
心理暗示	-14039
急速凝聚	-14040
感应到了	-14041
拍卖场中	-14042
显得颇为	-14043
有着一点	-14044
有足够的	-14045
望向萧炎	-14046
沉声问道	-14047
涌上一股	-14048
的地妖傀	-14049
眨也不眨	-14050
睁开眼来	-14051
究竟是谁	-14052
脸色大变	-14053
萧炎已经	-14054
这几句话	-14055
这是我的	-14056
这种层次	-14057
青色斗气	-14058
黑衣老者	-14059
不约而同的	-14060
克莱恩念头	-14061
戴莉西蒙妮	-14062
方才逐渐的	-14063
有了一定的	-14064
毫不客气的	-14065
第一百二十	-14066
答应了下来	-14067
非凡者聚会	-14068
眼中闪过一抹	-14069
”?	-14070
▁听	-14071
▁雷	-14072
一如	-14073
严密	-14074
为首	-14075
之分	-14076
之边	-14077
买下	-14078
五色	-14079
他了	-14080
你真	-14081
信奉	-14082
倒地	-14083
六阶	-14084
其次	-14085
再等	-14086
剥夺	-14087
十倍	-14088
单膝	-14089
名气	-14090
否定	-14091
否认	-14092
听懂	-14093
呢制	-14094
哈娜	-14095
喝彩	-14096
团员	-14097
圆塔	-14098
圣坛	-14099
垮塌	-14100
大作	-14101
大侠	-14102
大开	-14103
套着	-14104
奶油	-14105
她和	-14106
媒介	-14107
寒泉	-14108
尖利	-14109
尺法	-14110
展露	-14111
常常	-14112
廉价	-14113
开辟	-14114
引爆	-14115
强猛	-14116
微转	-14117
心意	-14118
快捷	-14119
恐慌	-14120
所使	-14121
抽象	-14122
指头	-14123
敲击	-14124
敷衍	-14125
无垠	-14126
晃荡	-14127
替换	-14128
月冕	-14129
末了	-14130
查看	-14131
棺柩	-14132
此后	-14133
毒手	-14134
浑圆	-14135
点在	-14136
热水	-14137
照入	-14138
照得	-14139
牛奶	-14140
牵制	-14141
玉女	-14142
痛楚	-14143
的同	-14144
的女	-14145
的家	-14146
相干	-14147
看那	-14148
眼界	-14149
笑谈	-14150
纵然	-14151
续道	-14152
美好	-14153
葵花	-14154
血丝	-14155
裙袍	-14156
西瓜	-14157
认得	-14158
说说	-14159
读者	-14160
谦卑	-14161
质变	-14162
跃起	-14163
过分	-14164
过后	-14165
逃避	-14166
金盆	-14167
金边	-14168
钟楼	-14169
靠在	-14170
驼子	-14171
骨子	-14172
魄力	-14173
黑湮	-14174
▁第三	-14175
一位位	-14176
一想到	-14177
上扫过	-14178
不多时	-14179
不急不	-14180
似乎被	-14181
你还有	-14182
共和国	-14183
其实力	-14184
几个人	-14185
分明的	-14186
十字街	-14187
变了变	-14188
和各种	-14189
地发现	-14190
姚坊主	-14191
完完全	-14192
容易被	-14193
将对方	-14194
徘徊于	-14195
思过崖	-14196
我一个	-14197
挡住了	-14198
教唆者	-14199
斯利维	-14200
施展出	-14201
是可以	-14202
有一件	-14203
有两个	-14204
有许多	-14205
未知的	-14206
本就是	-14207
注视中	-14208
灵性的	-14209
点燃了	-14210
炼制的	-14211
牢牢的	-14212
王夫人	-14213
瓦哈娜	-14214
的仆人	-14215
的岩浆	-14216
的那条	-14217
看门人	-14218
着一丝	-14219
米斯特	-14220
紫研的	-14221
给予了	-14222
羽毛笔	-14223
见识过	-14224
语言道	-14225
象征着	-14226
贝尔丹	-14227
足以让	-14228
青山镇	-14229
▁只听得	-14230
▁安静的	-14231
▁缓缓的	-14232
☆☆☆☆	-14233
不需要再	-14234
出了问题	-14235
却是并未	-14236
却是让得	-14237
喷吐而出	-14238
嗤嗤声响	-14239
在一起的	-14240
地下遗迹	-14241
实力大涨	-14242
尽量不要	-14243
岩枭小友	-14244
很是有些	-14245
忽然看见	-14246
恐怕也是	-14247
惊涛骇浪	-14248
无形仆役	-14249
无法想象	-14250
有所感应	-14251
毁灭般的	-14252
气旋之中	-14253
没再多说	-14254
深红月冕	-14255
深蓝色的	-14256
漆黑戒指	-14257
精纯能量	-14258
红脸老者	-14259
而就在其	-14260
药老笑道	-14261
许愿神灯	-14262
这种丹药	-14263
这种状态	-14264
迷雾小镇	-14265
递了过去	-14266
那样一来	-14267
铁黑色的	-14268
长出了一	-14269
顿了一下	-14270
魔兽干尸	-14271
▁下一秒钟	-14272
▁萧炎也是	-14273
不快不慢地	-14274
不管如何说	-14275
仿佛在思考	-14276
凸显了出来	-14277
四品炼药师	-14278
对于他来说	-14279
恐怕就算是	-14280
最后重重的	-14281
没什么问题	-14282
米斯特拉尔	-14283
而与此同时	-14284
海纳斯凡森特	-14285
萧炎也是一笑	-14286
闪电般的对着	-14287
▁萧炎微微一笑	-14288
鲁恩慈善助学基金	-14289
1:	-14290
?!	-14291
▁冰	-14292
一女	-14293
万丈	-14294
三弟	-14295
三点	-14296
上山	-14297
中产	-14298
乌鸦	-14299
于你	-14300
云霄	-14301
交道	-14302
亲昵	-14303
俏皮	-14304
倒了	-14305
催动	-14306
光印	-14307
写的	-14308
几根	-14309
刀法	-14310
刚从	-14311
初始	-14312
卢克	-14313
卢卡	-14314
口处	-14315
古井	-14316
听她	-14317
哗哗	-14318
四字	-14319
回道	-14320
场内	-14321
坐镇	-14322
堂堂	-14323
塔尔	-14324
增长	-14325
多种	-14326
大汗	-14327
奔波	-14328
好戏	-14329
妥当	-14330
婚姻	-14331
安魂	-14332
富豪	-14333
左道	-14334
心上	-14335
总会	-14336
恰好	-14337
惊咦	-14338
我以	-14339
推力	-14340
文学	-14341
无效	-14342
有钱	-14343
服下	-14344
期望	-14345
林海	-14346
森寒	-14347
此女	-14348
毫光	-14349
没敢	-14350
河水	-14351
派系	-14352
浮动	-14353
淇淋	-14354
火云	-14355
火烧	-14356
灼痛	-14357
炸药	-14358
爵位	-14359
状的	-14360
的二	-14361
瞎子	-14362
种子	-14363
空灵	-14364
竖直	-14365
篝火	-14366
精妙	-14367
系列	-14368
细线	-14369
细胞	-14370
结婚	-14371
缓的	-14372
罪犯	-14373
而动	-14374
胖子	-14375
花白	-14376
藏于	-14377
裤子	-14378
要不	-14379
迅捷	-14380
这大	-14381
迪尔	-14382
问我	-14383
闻名	-14384
隐居	-14385
风景	-14386
鲁斯	-14387
黄沙	-14388
▁他在	-14389
▁灵魂	-14390
▁看来	-14391
上午好	-14392
不动的	-14393
不喜欢	-14394
不是在	-14395
不正常	-14396
之色的	-14397
二十年	-14398
仅仅只	-14399
从天空	-14400
他眼前	-14401
倒的确	-14402
到此处	-14403
十几秒	-14404
只留下	-14405
可以说	-14406
后者那	-14407
如今这	-14408
对方是	-14409
尚还未	-14410
尤里斯	-14411
怎样的	-14412
怪物的	-14413
扭了扭	-14414
承受的	-14415
拱手道	-14416
摸了下	-14417
擅长的	-14418
整齐的	-14419
新生的	-14420
是一只	-14421
是他们	-14422
有一条	-14423
有一种	-14424
来自于	-14425
正是那	-14426
深刻的	-14427
然而其	-14428
用什么	-14429
的他们	-14430
的意志	-14431
的提升	-14432
的瞳孔	-14433
的细节	-14434
的血族	-14435
的通道	-14436
看不清	-14437
科塔尔	-14438
穿越者	-14439
第三纪	-14440
绝不会	-14441
谨慎的	-14442
还是在	-14443
这一路	-14444
这是否	-14445
这本书	-14446
连忙道	-14447
郑重的	-14448
都是得	-14449
锁定了	-14450
龙卷风	-14451
一声冷哼	-14452
一眼便是	-14453
三大龙岛	-14454
他看见了	-14455
你这家伙	-14456
克莱恩也	-14457
出一道道	-14458
在了萧炎	-14459
天墓之魂	-14460
失去理智	-14461
尤里斯安	-14462
差不多了	-14463
微微摇头	-14464
戴莉女士	-14465
提前更新	-14466
斗气匹练	-14467
日后若是	-14468
暴掠而来	-14469
杂物堆里	-14470
浮现许些	-14471
灰袍少年	-14472
灵魂印记	-14473
现在的你	-14474
的事情了	-14475
的达尼兹	-14476
萧炎一愣	-14477
葵花宝典	-14478
西北地域	-14479
说到此处	-14480
那道身影	-14481
飞了出去	-14482
伴生紫晶源	-14483
似乎并没有	-14484
可能存在的	-14485
干枯的手掌	-14486
此刻的后者	-14487
爆发出一阵	-14488
虎头人长老	-14489
这个老家伙	-14490
到了这种地步	-14491
死死的盯着那	-14492
目光转向萧炎	-14493
阿兹克艾格斯	-14494
目光紧紧的盯着	-14495
铺天盖地的暴涌而出	-14496
▁火	-14497
一侧	-14498
下沉	-14499
不准	-14500
不言	-14501
不露	-14502
之计	-14503
也将	-14504
人杰	-14505
今后	-14506
任的	-14507
会对	-14508
便想	-14509
光亮	-14510
公证	-14511
再好	-14512
冠冕	-14513
冰块	-14514
几眼	-14515
凸起	-14516
出关	-14517
刺客	-14518
半截	-14519
双剑	-14520
只的	-14521
吝啬	-14522
周薪	-14523
咋舌	-14524
回话	-14525
在乎	-14526
在想	-14527
地宝	-14528
处罚	-14529
天然	-14530
太强	-14531
奔驰	-14532
如实	-14533
孩儿	-14534
安眠	-14535
客店	-14536
就已	-14537
帆船	-14538
带路	-14539
干了	-14540
干涩	-14541
待我	-14542
得有	-14543
惊险	-14544
我已	-14545
所留	-14546
报销	-14547
抵消	-14548
拐杖	-14549
拥抱	-14550
指环	-14551
捏碎	-14552
推了	-14553
敢于	-14554
族内	-14555
无意	-14556
明了	-14557
月初	-14558
有意	-14559
末尾	-14560
本书	-14561
析出	-14562
欲坠	-14563
死伤	-14564
毕业	-14565
浅笑	-14566
浊气	-14567
烟花	-14568
特质	-14569
狠手	-14570
直指	-14571
相连	-14572
真心	-14573
眼波	-14574
穹顶	-14575
纵横	-14576
缠住	-14577
罗家	-14578
罡火	-14579
耀日	-14580
老年	-14581
药帮	-14582
袈裟	-14583
装作	-14584
请进	-14585
调侃	-14586
贝拉	-14587
过我	-14588
这老	-14589
迷路	-14590
迸发	-14591
逼迫	-14592
道尔	-14593
那面	-14594
铺着	-14595
闻到	-14596
阅历	-14597
除去	-14598
骇人	-14599
黑沉	-14600
▁微微	-14601
▁拳头	-14602
▁最终	-14603
上前来	-14604
世界上	-14605
但想要	-14606
低下了	-14607
你打算	-14608
倒在了	-14609
做一些	-14610
先前所	-14611
出问题	-14612
到自己	-14613
南威尔	-14614
厉害的	-14615
又何必	-14616
咖啡馆	-14617
回去了	-14618
回应了	-14619
大厅的	-14620
大祭司	-14621
她已经	-14622
安格尔	-14623
山脉中	-14624
干笑道	-14625
并不大	-14626
幻大师	-14627
忽然的	-14628
意外的	-14629
我们在	-14630
我说过	-14631
房屋内	-14632
手指上	-14633
手掌的	-14634
明知道	-14635
晋入了	-14636
有很多	-14637
望着这	-14638
没半点	-14639
流露出	-14640
独特的	-14641
用占卜	-14642
疯狂地	-14643
登上了	-14644
的一丝	-14645
的形式	-14646
的警察	-14647
的那座	-14648
的那抹	-14649
的面孔	-14650
目标是	-14651
看着那	-14652
礼貌地	-14653
空间船	-14654
给予他	-14655
而导致	-14656
血色的	-14657
被对方	-14658
跟你说	-14659
跟我来	-14660
蹬蹬的	-14661
这么大	-14662
那姑娘	-14663
门先生	-14664
阿达尔	-14665
难道你	-14666
面前那	-14667
高层次	-14668
...“	-14669
▁不愧是	-14670
▁罗塞尔	-14671
一位序列	-14672
一统江湖	-14673
丝毫不比	-14674
中心位置	-14675
也是略微	-14676
人的实力	-14677
他并没有	-14678
伸出手来	-14679
偏过头来	-14680
别的办法	-14681
化为一抹	-14682
化为虚无	-14683
却是猛然	-14684
压低嗓音	-14685
噶然而止	-14686
在这一霎	-14687
坐在那里	-14688
大殿之中	-14689
屈指可数	-14690
希斯道尔	-14691
平淡的道	-14692
床榻之上	-14693
延伸而出	-14694
形成一个	-14695
想要得到	-14696
手指上的	-14697
拍了拍手	-14698
摇摇欲坠	-14699
最后一天	-14700
没有开口	-14701
爆炸开来	-14702
爆裂开来	-14703
玄阶高级	-14704
玫歌庄园	-14705
的能量体	-14706
瞬间变得	-14707
竟然没有	-14708
绝望魔女	-14709
缓缓消散	-14710
聚合定律	-14711
自嘲一笑	-14712
萧炎小友	-14713
血刀圣者	-14714
视野之中	-14715
赫家家主	-14716
走了过来	-14717
还不知道	-14718
这位朋友	-14719
这种速度	-14720
那栋房屋	-14721
铁十字街	-14722
阳炎符咒	-14723
陆大有道	-14724
靠拢过去	-14725
音爆之声	-14726
高速旋转	-14727
▁那是一个	-14728
一个接一个	-14729
云岚宗长老	-14730
即便是一些	-14731
取而代之的	-14732
吐槽了一句	-14733
嘀咕了一句	-14734
在这件事情	-14735
安格尔威德	-14736
小医仙也是	-14737
幽蓝复仇者	-14738
感慨了一句	-14739
愿女神庇佑	-14740
所罗门帝国	-14741
有什么问题	-14742
毫不犹豫地	-14743
睁开了眼睛	-14744
第一次看见	-14745
自己的身体	-14746
说不出话来	-14747
陨落心炎的	-14748
龙凰本源果	-14749
▁而这个时候	-14750
对于萧炎来说	-14751
成的单片眼镜	-14752
道恩唐泰斯的	-14753
阿兹克先生的	-14754
额头上的冷汗	-14755
脸庞上浮现一抹	-14756
18	-14757
jl	-14758
▁天	-14759
▁青	-14760
一瓶	-14761
三族	-14762
上周	-14763
严皓	-14764
丽芙	-14765
之效	-14766
传授	-14767
传遍	-14768
伤了	-14769
低哑	-14770
作声	-14771
使出	-14772
信号	-14773
刺去	-14774
刺穿	-14775
十七	-14776
卑鄙	-14777
口琴	-14778
可得	-14779
可我	-14780
名列	-14781
响声	-14782
囚犯	-14783
四翼	-14784
图案	-14785
在内	-14786
壁灯	-14787
声名	-14788
声息	-14789
头骨	-14790
契合	-14791
好心	-14792
宗丹	-14793
定格	-14794
害死	-14795
峰上	-14796
左胸	-14797
广泛	-14798
应用	-14799
店铺	-14800
必定	-14801
忙道	-14802
惊吓	-14803
想好	-14804
我该	-14805
承喏	-14806
拜见	-14807
指间	-14808
挺剑	-14809
捧着	-14810
擦拭	-14811
收购	-14812
放到	-14813
放慢	-14814
放纵	-14815
昏沉	-14816
星盘	-14817
是对	-14818
有条	-14819
服装	-14820
松懈	-14821
极是	-14822
气浪	-14823
活人	-14824
流出	-14825
浓厚	-14826
滚动	-14827
滞涩	-14828
满地	-14829
点半	-14830
煞白	-14831
疯掉	-14832
的铁	-14833
眈眈	-14834
看清	-14835
睡眠	-14836
知他	-14837
神使	-14838
神采	-14839
笃定	-14840
笑的	-14841
简朴	-14842
粘附	-14843
纸上	-14844
羔羊	-14845
肚中	-14846
胸腹	-14847
脑后	-14848
腰肢	-14849
舒缓	-14850
航行	-14851
莽撞	-14852
落后	-14853
落空	-14854
蚂蚁	-14855
蜕变	-14856
血芒	-14857
请问	-14858
豌豆	-14859
转轮	-14860
转运	-14861
过于	-14862
这头	-14863
这段	-14864
这让	-14865
重剑	-14866
钟吟	-14867
问话	-14868
雨水	-14869
风旋	-14870
香槟	-14871
骇得	-14872
龙威	-14873
龙鳞	-14874
“30	-14875
▁“,	-14876
▁一声	-14877
▁三人	-14878
▁什么	-14879
▁即使	-14880
▁听完	-14881
▁哐当	-14882
一滴滴	-14883
下杀手	-14884
不了解	-14885
不甘的	-14886
乃至于	-14887
也不算	-14888
了半晌	-14889
了整个	-14890
他同样	-14891
做准备	-14892
加尔文	-14893
化为了	-14894
只要不	-14895
可没有	-14896
嘴角道	-14897
四周的	-14898
在身上	-14899
在这一	-14900
地望向	-14901
大眼睛	-14902
安乐椅	-14903
完成的	-14904
容不得	-14905
得如此	-14906
手里的	-14907
打量着	-14908
抱歉了	-14909
抹了把	-14910
是一座	-14911
是属于	-14912
爆炸声	-14913
痛苦的	-14914
的一样	-14915
的女儿	-14916
的强悍	-14917
的强横	-14918
的手印	-14919
的那团	-14920
眼眸内	-14921
着一枚	-14922
码头区	-14923
破宗丹	-14924
稳稳的	-14925
空气里	-14926
突然从	-14927
紧了紧	-14928
紧盯着	-14929
而反观	-14930
葱郁的	-14931
衣帽架	-14932
赫然是	-14933
轰击在	-14934
这两年	-14935
这二人	-14936
隐蔽地	-14937
鲁恩人	-14938
黑岩城	-14939
▁她随即	-14940
▁霍然间	-14941
一个玉瓶	-14942
与云岚宗	-14943
也是连忙	-14944
了两秒道	-14945
五大家族	-14946
交易市场	-14947
低声问道	-14948
冰灵寒泉	-14949
又是一道	-14950
发动攻击	-14951
可以想象	-14952
和梅丽莎	-14953
和相应的	-14954
在其周身	-14955
在萧炎的	-14956
奇迹之城	-14957
好奇问道	-14958
属性斗气	-14959
布置仪式	-14960
慷慨之城	-14961
戏法大师	-14962
才有可能	-14963
斗王阶别	-14964
旋即有些	-14965
晋升仪式	-14966
朗声说道	-14967
每一个人	-14968
浩瀚斗气	-14969
点了四下	-14970
献祭仪式	-14971
的佛尔思	-14972
的注视下	-14973
的那些人	-14974
苏尼亚岛	-14975
表现出了	-14976
走了几步	-14977
那位叫做	-14978
闪掠而下	-14979
露出笑容	-14980
三千雷幻身	-14981
你应该知道	-14982
克莱恩一眼	-14983
克莱恩听得	-14984
所在的地方	-14985
拉夫特庞德	-14986
是什么样子	-14987
汇聚在一起	-14988
的对着萧炎	-14989
苍老的嗓音	-14990
药老的声音	-14991
莫里亚蒂侦探	-14992
画了个绯红之月	-14993
以肉眼可见的速度	-14994
8,	-14995
一体	-14996
一刀	-14997
一花	-14998
上崖	-14999
不入	-15000
丹田	-15001
之路	-15002
乌龟	-15003
也想	-15004
也该	-15005
交出	-15006
他却	-15007
以你	-15008
份上	-15009
传言	-15010
体现	-15011
体系	-15012
佼佼	-15013
兔子	-15014
六翼	-15015
凌空	-15016
凝望	-15017
几下	-15018
劈砍	-15019
功力	-15020
十九	-15021
去向	-15022
可供	-15023
右腿	-15024
右边	-15025
后洞	-15026
四分	-15027
图谋	-15028
圣洁	-15029
塞入	-15030
大口	-15031
大肆	-15032
天涯	-15033
失了	-15034
奇道	-15035
山丘	-15036
岂能	-15037
帮主	-15038
开战	-15039
引动	-15040
引诱	-15041
引领	-15042
张口	-15043
当他	-15044
很远	-15045
忠诚	-15046
忧虑	-15047
性地	-15048
成立	-15049
我更	-15050
手背	-15051
拿来	-15052
接到	-15053
提交	-15054
插进	-15055
援助	-15056
摇摆	-15057
救人	-15058
教师	-15059
无光	-15060
是指	-15061
栏杆	-15062
梦幻	-15063
梦见	-15064
正被	-15065
毁掉	-15066
油然	-15067
泪水	-15068
洛络	-15069
济贫	-15070
浑噩	-15071
海面	-15072
激荡	-15073
炉火	-15074
狼王	-15075
猩红	-15076
瑟夫	-15077
由我	-15078
白影	-15079
的钱	-15080
看台	-15081
眼色	-15082
石塔	-15083
祂是	-15084
章节	-15085
精光	-15086
纹章	-15087
羞愧	-15088
而住	-15089
自知	-15090
航海	-15091
船票	-15092
蒙蒙	-15093
裙摆	-15094
裸露	-15095
让那	-15096
词语	-15097
说边	-15098
贵派	-15099
身心	-15100
边境	-15101
这只	-15102
闪闪	-15103
附体	-15104
雪岚	-15105
顺序	-15106
领悟	-15107
马戏	-15108
魂婴	-15109
鲜明	-15110
▁也许	-15111
▁如今	-15112
▁如此	-15113
▁苏茜	-15114
一下子	-15115
一瞬间	-15116
下方那	-15117
不是我	-15118
九龙雷	-15119
于心里	-15120
他不会	-15121
他体内	-15122
但最后	-15123
你不用	-15124
你二人	-15125
你是否	-15126
佩戴者	-15127
修道院	-15128
到什么	-15129
劳伦斯	-15130
卡尔森	-15131
压制住	-15132
响彻着	-15133
在那个	-15134
外界的	-15135
大殿中	-15136
少阁主	-15137
展开了	-15138
当他们	-15139
怎么做	-15140
怒喝道	-15141
急忙道	-15142
我今天	-15143
抽出了	-15144
拍了下	-15145
无论是	-15146
早就被	-15147
时间中	-15148
有一人	-15149
本质上	-15150
材地宝	-15151
毒龙兽	-15152
沾染着	-15153
洛络塔	-15154
特定的	-15155
狠狠砸	-15156
的大海	-15157
的女性	-15158
的强大	-15159
的火莲	-15160
的金光	-15161
眉宇间	-15162
石像鬼	-15163
绝对会	-15164
考虑起	-15165
而此时	-15166
自然而	-15167
致命的	-15168
若是你	-15169
药鼎中	-15170
视眈眈	-15171
让萧炎	-15172
这几日	-15173
这般的	-15174
那最后	-15175
那黑色	-15176
都属于	-15177
长长地	-15178
颔首道	-15179
鲜血的	-15180
2000	-15181
▁咚咚咚	-15182
▁对于这	-15183
也不理会	-15184
亲自出手	-15185
他的对手	-15186
似乎是在	-15187
位置坐下	-15188
便是将会	-15189
倒是有些	-15190
做出决定	-15191
全知全能	-15192
凌厉劲风	-15193
出现什么	-15194
北方之王	-15195
千秋万载	-15196
原来如此	-15197
地在心里	-15198
嫣然一笑	-15199
完完全全	-15200
已经有了	-15201
异火榜上	-15202
很多人都	-15203
很有可能	-15204
必然不会	-15205
我想知道	-15206
抬头望向	-15207
摇了下头	-15208
无疑将会	-15209
最强猎人	-15210
最终还是	-15211
有什么好	-15212
根本没法	-15213
液体能量	-15214
漆黑眸子	-15215
爆发而起	-15216
珍稀药材	-15217
的封印物	-15218
的黑暗里	-15219
直接对着	-15220
直起身体	-15221
真实实力	-15222
立在那里	-15223
纸人替身	-15224
被缚之神	-15225
视线之中	-15226
视线之内	-15227
还有别的	-15228
这应该是	-15229
这是一种	-15230
进入天墓	-15231
青城派的	-15232
面色有些	-15233
颇感兴趣	-15234
风雷之力	-15235
魔镜占卜	-15236
黄金面具	-15237
默默点头	-15238
▁没有理会	-15239
▁纳兰嫣然	-15240
三品炼药师	-15241
克莱恩笑着	-15242
克莱恩腹诽	-15243
的深红星辰	-15244
的能量涟漪	-15245
第一百七十	-15246
第一百五十	-15247
若非是因为	-15248
萧炎微笑道	-15249
补充了一句	-15250
震耳欲聋的	-15251
▁他话音未落	-15252
▁埃姆林怀特	-15253
瞥了萧炎一眼	-15254
萧炎心中也是	-15255
萧炎忍不住的	-15256
灰雾之上的神秘主宰	-15257
一袭	-15258
不俗	-15259
两颗	-15260
中指	-15261
事项	-15262
亡魂	-15263
亲身	-15264
仓促	-15265
低垂	-15266
入梦	-15267
凯蒂	-15268
出没	-15269
出身	-15270
击退	-15271
刘某	-15272
勃勃	-15273
单手	-15274
单薄	-15275
原主	-15276
又会	-15277
发亮	-15278
吃惊	-15279
吃的	-15280
哈森	-15281
喜色	-15282
喝了	-15283
大出	-15284
大石	-15285
大骂	-15286
失效	-15287
她那	-15288
孕育	-15289
宗教	-15290
宣扬	-15291
小偷	-15292
小型	-15293
小岛	-15294
少有	-15295
帘布	-15296
带人	-15297
底线	-15298
微卷	-15299
心境	-15300
心寒	-15301
我最	-15302
打个	-15303
打造	-15304
掺合	-15305
揉着	-15306
支离	-15307
敌手	-15308
显赫	-15309
暴戾	-15310
替代	-15311
机关	-15312
横行	-15313
橱柜	-15314
歇息	-15315
正教	-15316
殿下	-15317
气体	-15318
汁液	-15319
滋味	-15320
炸裂	-15321
的战	-15322
盟友	-15323
真切	-15324
真诚	-15325
绝无	-15326
绝顶	-15327
维克	-15328
船舷	-15329
花钱	-15330
螺旋	-15331
袖手	-15332
被窝	-15333
计较	-15334
踏上	-15335
转化	-15336
轻抬	-15337
远了	-15338
遗传	-15339
遗漏	-15340
郁金	-15341
门后	-15342
闭了	-15343
陆柏	-15344
震碎	-15345
霸主	-15346
面貌	-15347
飞跃	-15348
首都	-15349
魂灵	-15350
(1)	-15351
’?”	-15352
▁他对	-15353
▁原来	-15354
上辈子	-15355
下一次	-15356
不完整	-15357
乖乖的	-15358
了一半	-15359
了一块	-15360
了一瞬	-15361
了少许	-15362
什么事	-15363
他身上	-15364
伸出了	-15365
你难道	-15366
再一次	-15367
准确的	-15368
半神级	-15369
受到的	-15370
可至少	-15371
各自的	-15372
和之前	-15373
多少人	-15374
大规模	-15375
天空的	-15376
天造化	-15377
太多了	-15378
失败的	-15379
好奇的	-15380
家族人	-15381
并未有	-15382
张夫人	-15383
很抱歉	-15384
心动魄	-15385
怪不得	-15386
我听说	-15387
我喜欢	-15388
所以说	-15389
推开了	-15390
提着的	-15391
插入了	-15392
收拾好	-15393
斯特街	-15394
有这般	-15395
来对付	-15396
枚丹药	-15397
正处于	-15398
海上的	-15399
猛烈的	-15400
现实的	-15401
男一女	-15402
的发展	-15403
的知识	-15404
的类型	-15405
的美丽	-15406
的脚步	-15407
的青莲	-15408
秘偶的	-15409
秘法师	-15410
第一块	-15411
第三个	-15412
精神的	-15413
结束后	-15414
给了我	-15415
翻到了	-15416
苍狼王	-15417
薄薄的	-15418
薰儿那	-15419
血红的	-15420
让秘偶	-15421
过多的	-15422
这般说	-15423
那两个	-15424
那人道	-15425
那火焰	-15426
郁金香	-15427
长袍的	-15428
闭眼睛	-15429
阴阳玄	-15430
▁此时的	-15431
不太一样	-15432
了下嘴唇	-15433
似乎有着	-15434
低沉的道	-15435
你奶奶的	-15436
便是变得	-15437
冲虚道长	-15438
动弹不得	-15439
只要你能	-15440
在其面前	-15441
太阳圣徽	-15442
奥黛丽和	-15443
安乐椅上	-15444
安静听完	-15445
定然不会	-15446
师父师娘	-15447
平静下来	-15448
应该已经	-15449
应该是在	-15450
微微皱眉	-15451
愣了下来	-15452
或许能够	-15453
斗皇阶别	-15454
时不时的	-15455
曜老先生	-15456
本身就是	-15457
沉吟之色	-15458
没有发现	-15459
炼药宗师	-15460
然后将之	-15461
眼睛一亮	-15462
突然变得	-15463
竟然也是	-15464
紫褐色的	-15465
缓缓旋转	-15466
耳边响起	-15467
能量风暴	-15468
般的感觉	-15469
蒸汽教会	-15470
蓝衣青年	-15471
薰儿等人	-15472
虎视眈眈	-15473
蝎毒龙兽	-15474
说不定会	-15475
说了一声	-15476
谁都知道	-15477
足以让得	-15478
还是有些	-15479
这片海域	-15480
这般地步	-15481
那里得到	-15482
雷霆之力	-15483
▁在他看来	-15484
举手投足间	-15485
低语了一句	-15486
克莱恩默默	-15487
出现了一些	-15488
咕哝了一句	-15489
四个金发红	-15490
摸了摸鼻子	-15491
的能量风暴	-15492
第一百六十	-15493
第一百四十	-15494
萧炎也只得	-15495
血战佣兵团	-15496
轨公共马车	-15497
途径的天使	-15498
重复了一遍	-15499
颤抖了一下	-15500
魔药的配方	-15501
亚利斯塔图铎	-15502
他能够感觉到	-15503
凄厉的惨叫声	-15504
双手负于身后	-15505
塔戈尔大沙漠	-15506
消失在了原地	-15507
的道恩唐泰斯	-15508
金毛大狗苏茜	-15509
轻吸了一口凉气	-15510
......”’	-15511
图坦西斯二世木乃伊	-15512
一众	-15513
一扬	-15514
一波	-15515
不妥	-15516
不曾	-15517
丑陋	-15518
丢弃	-15519
之为	-15520
之数	-15521
之骰	-15522
代号	-15523
任谁	-15524
假期	-15525
储存	-15526
再过	-15527
冲杀	-15528
分辩	-15529
制成	-15530
助力	-15531
卖给	-15532
去想	-15533
又问	-15534
只差	-15535
叫作	-15536
可有	-15537
同色	-15538
吞下	-15539
吞进	-15540
商店	-15541
啰嗦	-15542
地对	-15543
坚韧	-15544
坠落	-15545
多人	-15546
娇嫩	-15547
学姐	-15548
宏伟	-15549
对恃	-15550
对比	-15551
尊重	-15552
就欲	-15553
左肩	-15554
布条	-15555
帕德	-15556
席上	-15557
干么	-15558
干涉	-15559
开朗	-15560
待了	-15561
忙脚	-15562
怒意	-15563
惊艳	-15564
惨重	-15565
我问	-15566
所处	-15567
持之	-15568
掌管	-15569
掺和	-15570
摆动	-15571
撕成	-15572
撬动	-15573
数倍	-15574
无事	-15575
是她	-15576
最是	-15577
未被	-15578
来人	-15579
来过	-15580
极低	-15581
极点	-15582
歉意	-15583
正待	-15584
水中	-15585
汗毛	-15586
沐浴	-15587
法门	-15588
波纹	-15589
派遣	-15590
潮流	-15591
火候	-15592
火爆	-15593
点缀	-15594
狂喷	-15595
狠毒	-15596
狭窄	-15597
环绕	-15598
珠宝	-15599
登记	-15600
看法	-15601
石族	-15602
竖立	-15603
线人	-15604
绸缎	-15605
船头	-15606
蝙蝠	-15607
血气	-15608
血莲	-15609
被子	-15610
袭来	-15611
解脱	-15612
触感	-15613
警员	-15614
诚意	-15615
谁会	-15616
财政	-15617
货色	-15618
逝去	-15619
道歉	-15620
遭惹	-15621
释然	-15622
金谷	-15623
镜中	-15624
镶银	-15625
长出	-15626
长满	-15627
长达	-15628
除开	-15629
雪花	-15630
风刃	-15631
魔鬼	-15632
龙丹	-15633
‘0’	-15634
▁刹那	-15635
▁只听	-15636
▁只是	-15637
▁真是	-15638
▁脚掌	-15639
▁迈克	-15640
▁难怪	-15641
一屁股	-15642
一张张	-15643
一群人	-15644
不由的	-15645
也许会	-15646
书桌前	-15647
了两声	-15648
二三十	-15649
今日的	-15650
他打算	-15651
令得其	-15652
会如此	-15653
传出了	-15654
你就是	-15655
你想要	-15656
你认识	-15657
便是能	-15658
具尸体	-15659
出手的	-15660
取出了	-15661
哈哈哈	-15662
在这股	-15663
塞入了	-15664
天使的	-15665
太清楚	-15666
头顶上	-15667
她知道	-15668
存在着	-15669
寄生者	-15670
小区仙	-15671
应该在	-15672
康斯顿	-15673
当日在	-15674
慵懒的	-15675
我不能	-15676
我感觉	-15677
我甚至	-15678
我给你	-15679
打不过	-15680
打起来	-15681
抽搐着	-15682
旋即道	-15683
映入了	-15684
普普通	-15685
有一张	-15686
有几分	-15687
水手们	-15688
特里斯	-15689
现在是	-15690
玻璃瓶	-15691
用的是	-15692
白玛瑙	-15693
的主角	-15694
的众人	-15695
的武功	-15696
的皮肤	-15697
的那颗	-15698
的青衣	-15699
短暂竟	-15700
第二种	-15701
给予的	-15702
老师的	-15703
而且最	-15704
而是在	-15705
自动的	-15706
至少得	-15707
苏勒的	-15708
血脉的	-15709
还不到	-15710
这萧炎	-15711
通体呈	-15712
邪教徒	-15713
锁定着	-15714
闻到了	-15715
马戏团	-15716
黑袍下	-15717
▁第二天	-15718
▁蹬蹬蹬	-15719
一段距离	-15720
一种异火	-15721
一道足有	-15722
不过萧炎	-15723
便是将之	-15724
冰霜巨龙	-15725
化为灰烬	-15726
半年时间	-15727
叮叮当当	-15728
同样如此	-15729
吞噬异火	-15730
咻的一声	-15731
在场的人	-15732
天造化掌	-15733
巨石之上	-15734
已经完全	-15735
平斯特街	-15736
弗萨克人	-15737
惊天动地	-15738
惊心动魄	-15739
手掌轻轻	-15740
普普通通	-15741
最好不要	-15742
概率之骰	-15743
毫无保留	-15744
没想到你	-15745
没有掩饰	-15746
消散而去	-15747
灰衣老妪	-15748
灰袍老者	-15749
然而如今	-15750
粘稠液体	-15751
绯红月光	-15752
脸色都是	-15753
起居室内	-15754
身体之内	-15755
过了一会	-15756
阿蒙分身	-15757
顺着声音	-15758
顿了一顿	-15759
飞快勾勒	-15760
2049”	-15761
▁而伴随着	-15762
▁萧炎一笑	-15763
▁阿里安娜	-15764
东切斯特郡	-15765
九龙雷罡火	-15766
也不是什么	-15767
克莱恩微笑	-15768
克莱恩终于	-15769
后靠住椅背	-15770
因为他发现	-15771
平静了下来	-15772
弗萨克帝国	-15773
无边无际的	-15774
沉默了几秒	-15775
第一百九十	-15776
第一百八十	-15777
算不得什么	-15778
迦南学院的	-15779
阴阳玄龙丹	-15780
隐隐间有着	-15781
▁赫温兰比斯	-15782
因蒂斯共和国	-15783
眉头微微一皱	-15784
这方面的事情	-15785
▁时间一分一秒	-15786
互相对视了一眼	-15787
;“	-15788
』”	-15789
一世	-15790
一扭	-15791
一线	-15792
三招	-15793
下周	-15794
不复	-15795
不怀	-15796
不服	-15797
不给	-15798
之约	-15799
五霸	-15800
令他	-15801
以致	-15802
伤心	-15803
估计	-15804
体面	-15805
充沛	-15806
全神	-15807
六月	-15808
冰晶	-15809
出其	-15810
划分	-15811
利奥	-15812
化形	-15813
十丈	-15814
又怎	-15815
号召	-15816
各派	-15817
后辈	-15818
吞服	-15819
四溅	-15820
四种	-15821
地在	-15822
多大	-15823
大字	-15824
奢侈	-15825
女婿	-15826
她说	-15827
就没	-15828
巨浪	-15829
已将	-15830
带到	-15831
心机	-15832
心血	-15833
恶贼	-15834
打牌	-15835
扬扬	-15836
护体	-15837
抵住	-15838
拉了	-15839
拍着	-15840
拐角	-15841
持久	-15842
撑着	-15843
改善	-15844
新鲜	-15845
旁门	-15846
星光	-15847
本钱	-15848
柔顺	-15849
树的	-15850
树顶	-15851
梳理	-15852
毕生	-15853
水平	-15854
涌盛	-15855
深暗	-15856
深陷	-15857
灵盖	-15858
照料	-15859
皇冠	-15860
监视	-15861
直线	-15862
直面	-15863
相貌	-15864
盾牌	-15865
着你	-15866
瞒过	-15867
福建	-15868
种植	-15869
粮食	-15870
纤指	-15871
纯白	-15872
经济	-15873
绰绰	-15874
职位	-15875
胡涂	-15876
能为	-15877
腾空	-15878
虽强	-15879
设法	-15880
诡计	-15881
谦虚	-15882
豪杰	-15883
贿赂	-15884
转变	-15885
转回	-15886
这届	-15887
远方	-15888
远的	-15889
送给	-15890
遗弃	-15891
遮蔽	-15892
那层	-15893
都想	-15894
都说	-15895
醒了	-15896
铺垫	-15897
阴绿	-15898
阻隔	-15899
难题	-15900
雕塑	-15901
青涩	-15902
预防	-15903
飙升	-15904
高深	-15905
黑铁	-15906
▁他将	-15907
▁接过	-15908
▁脸庞	-15909
。’”	-15910
一切都	-15911
一刻钟	-15912
上门来	-15913
了一只	-15914
了一定	-15915
了一股	-15916
了下方	-15917
亚特鲁	-15918
传说里	-15919
佼佼者	-15920
便只能	-15921
关上了	-15922
冷笑声	-15923
利奥马	-15924
卧室内	-15925
又一条	-15926
告死号	-15927
呼吸间	-15928
和我们	-15929
因为我	-15930
在海上	-15931
多余的	-15932
女士的	-15933
好奇心	-15934
安慰道	-15935
小丹塔	-15936
就这么	-15937
已经有	-15938
很好的	-15939
忙碌着	-15940
情绪的	-15941
我们都	-15942
我的名	-15943
所充斥	-15944
提供了	-15945
敲门声	-15946
无法再	-15947
是一处	-15948
有哪些	-15949
来找我	-15950
深红的	-15951
用一种	-15952
的名义	-15953
的方案	-15954
的特性	-15955
的状况	-15956
的记忆	-15957
看出了	-15958
真的有	-15959
眼花缭	-15960
祈求声	-15961
窗外的	-15962
竟然能	-15963
等地方	-15964
给我的	-15965
罗人杰	-15966
聚气散	-15967
自体内	-15968
萧家的	-15969
落雁天	-15970
被强行	-15971
见过的	-15972
贝利亚	-15973
迅速就	-15974
这三个	-15975
这丹药	-15976
这内院	-15977
这样啊	-15978
迪尔查	-15979
邙天尺	-15980
那神秘	-15981
闪电的	-15982
颤声道	-15983
鲜红的	-15984
▁风尊者	-15985
一个序列	-15986
一位半神	-15987
一声厉喝	-15988
三分之一	-15989
了好几秒	-15990
你在这里	-15991
准备好的	-15992
到了最后	-15993
到处都是	-15994
加快速度	-15995
劳德诺道	-15996
半高礼帽	-15997
南北大陆	-15998
即便是以	-15999
在令狐冲	-16000
在萧炎那	-16001
多了一分	-16002
奥利安娜	-16003
安全航道	-16004
实力暴涨	-16005
寂静无声	-16006
很多时候	-16007
很少有人	-16008
急忙后退	-16009
想到这里	-16010
想要将之	-16011
所带来的	-16012
挑起一抹	-16013
控制住了	-16014
提着马灯	-16015
斗宗巅峰	-16016
旋即似是	-16017
无数人的	-16018
暂时没有	-16019
有些难以	-16020
有所明悟	-16021
望了过去	-16022
活了过来	-16023
火焰跳跃	-16024
然后目光	-16025
真不知道	-16026
石台上的	-16027
磅礴气势	-16028
神农老人	-16029
缓缓睁开	-16030
缓缓紧握	-16031
这会不会	-16032
途径半神	-16033
都是难以	-16034
▁不得不说	-16035
▁这是一个	-16036
克莱恩再次	-16037
六翼石像鬼	-16038
利奥马斯特	-16039
周围的那些	-16040
天境大圆满	-16041
展现出来的	-16042
形成了一个	-16043
恒山派掌门	-16044
打了声招呼	-16045
抽动了一下	-16046
时间的流逝	-16047
望着萧炎那	-16048
沉吟了一下	-16049
消失的地方	-16050
肯定的答复	-16051
自己的实力	-16052
黑色郁金香	-16053
唯一的问题是	-16054
自然是不可能	-16055
萧炎脸色也是	-16056
以他如今的实力	-16057
究竟发生了什么事情	-16058
25	-16059
2:	-16060
39	-16061
▁注	-16062
。"	-16063
一的	-16064
东北	-16065
两句	-16066
之别	-16067
于了	-16068
他很	-16069
份量	-16070
伤亡	-16071
你与	-16072
假扮	-16073
像个	-16074
共鸣	-16075
再看	-16076
凶光	-16077
刘三	-16078
动摇	-16079
半寸	-16080
南区	-16081
原则	-16082
变形	-16083
口音	-16084
可也	-16085
吃饭	-16086
向她	-16087
哑然	-16088
四块	-16089
壁上	-16090
处处	-16091
失色	-16092
契机	-16093
如云	-16094
如释	-16095
封禅	-16096
展动	-16097
干系	-16098
幻术	-16099
广众	-16100
当世	-16101
微妙	-16102
微抬	-16103
快点	-16104
快的	-16105
急转	-16106
情形	-16107
想走	-16108
扭转	-16109
扶起	-16110
折断	-16111
抽取	-16112
拼凑	-16113
摔倒	-16114
散步	-16115
无谓	-16116
更深	-16117
杰出	-16118
格林	-16119
楼上	-16120
毙命	-16121
浮夸	-16122
淡薄	-16123
混迹	-16124
火堆	-16125
炎热	-16126
熟稔	-16127
牵涉	-16128
玉音	-16129
理念	-16130
瓶子	-16131
用于	-16132
留手	-16133
疏忽	-16134
的银	-16135
看在	-16136
租赁	-16137
米的	-16138
紊乱	-16139
纪元	-16140
纹身	-16141
终点	-16142
翕动	-16143
翠绿	-16144
脸面	-16145
自来	-16146
药坊	-16147
莲步	-16148
落至	-16149
虽是	-16150
蛇尾	-16151
蜿蜒	-16152
血月	-16153
要素	-16154
试验	-16155
语罢	-16156
请他	-16157
败了	-16158
赫赫	-16159
跪下	-16160
转达	-16161
较之	-16162
这所	-16163
通天	-16164
那栋	-16165
酒馆	-16166
金雁	-16167
闹得	-16168
阴晴	-16169
阵型	-16170
霜子	-16171
顽固	-16172
领教	-16173
颓丧	-16174
飞猛	-16175
驱毒	-16176
高强	-16177
鼎炉	-16178
鼻端	-16179
?,’	-16180
▁喀嚓	-16181
▁旋即	-16182
▁自从	-16183
▁远处	-16184
▁通过	-16185
不会太	-16186
不具备	-16187
不大的	-16188
个不停	-16189
也是有	-16190
交过手	-16191
什么人	-16192
从体内	-16193
从里面	-16194
他可以	-16195
他认为	-16196
侧头对	-16197
偶尔间	-16198
入口中	-16199
冰淇淋	-16200
决不会	-16201
决不能	-16202
同等级	-16203
和其他	-16204
嘟囔道	-16205
回忆着	-16206
在其上	-16207
地底的	-16208
场中那	-16209
基本的	-16210
大都市	-16211
安全的	-16212
将身体	-16213
小玉瓶	-16214
就好了	-16215
怀中的	-16216
恐怖了	-16217
想要将	-16218
成一个	-16219
我就是	-16220
所包裹	-16221
排除掉	-16222
旋即其	-16223
无暗者	-16224
时之间	-16225
是没有	-16226
株药材	-16227
没关系	-16228
活跃于	-16229
父亲的	-16230
的侵蚀	-16231
的劲风	-16232
的孩子	-16233
的广场	-16234
的火光	-16235
的灵性	-16236
的理由	-16237
的话音	-16238
的象征	-16239
直视着	-16240
相媲美	-16241
着一层	-16242
第一纪	-16243
维持着	-16244
缠绕着	-16245
老管家	-16246
自己去	-16247
至少是	-16248
跟着我	-16249
辆马车	-16250
边说边	-16251
这两种	-16252
这或许	-16253
进行了	-16254
遮住了	-16255
那两名	-16256
飞而去	-16257
高大的	-16258
3000	-16259
▁他之前	-16260
三十来岁	-16261
乳白色的	-16262
伸了一个	-16263
似乎有些	-16264
出了一张	-16265
却是极为	-16266
地面上的	-16267
塞进嘴中	-16268
声音嘶哑	-16269
大气污染	-16270
如释重负	-16271
对视一眼	-16272
岩浆海域	-16273
已经彻底	-16274
开口说话	-16275
心中一喜	-16276
怎么样了	-16277
恶狠狠的	-16278
浑身上下	-16279
淡蓝色的	-16280
焚炎谷的	-16281
玉石骨翼	-16282
白之魔女	-16283
目光扫向	-16284
相当不错	-16285
真的能够	-16286
短短不到	-16287
竟然还有	-16288
脱口问道	-16289
脸色一变	-16290
艾尔哈森	-16291
若是放在	-16292
薰儿也是	-16293
让的萧炎	-16294
身形一颤	-16295
转头望向	-16296
这个可能	-16297
这么看来	-16298
透着许些	-16299
那一道道	-16300
那片区域	-16301
闪过一道	-16302
风太师叔	-16303
▁不过虽然	-16304
也仅仅只是	-16305
前方不远处	-16306
嗤笑了一声	-16307
微眯着眼睛	-16308
明白了什么	-16309
极为庞大的	-16310
每一个角落	-16311
看到这一幕	-16312
米特尔腾山	-16313
脱口而出道	-16314
萧炎的身形	-16315
萧鼎与萧厉	-16316
这段时间的	-16317
迫不及待地	-16318
遭遇了什么	-16319
周一求推荐票	-16320
按开看了一眼	-16321
克莱恩吐了口气	-16322
萧炎眼中也是掠过一抹	-16323
。‘	-16324
一万	-16325
一拍	-16326
一摆	-16327
三日	-16328
下移	-16329
严实	-16330
丹轩	-16331
买到	-16332
了大	-16333
于内	-16334
云海	-16335
五裂	-16336
人所	-16337
从头	-16338
份的	-16339
休整	-16340
伤人	-16341
伦堡	-16342
低了	-16343
便去	-16344
傻子	-16345
冤枉	-16346
击出	-16347
划起	-16348
刻钟	-16349
剑刃	-16350
剑罡	-16351
剑身	-16352
力竭	-16353
十天	-16354
压得	-16355
原是	-16356
取到	-16357
受过	-16358
变回	-16359
古铜	-16360
叫他	-16361
后天	-16362
听听	-16363
善意	-16364
在山	-16365
在手	-16366
地里	-16367
塑造	-16368
复原	-16369
外在	-16370
对撞	-16371
寻到	-16372
小弟	-16373
就去	-16374
巨力	-16375
强盛	-16376
当地	-16377
往着	-16378
忙又	-16379
恨恨	-16380
恩赐	-16381
手稿	-16382
抓到	-16383
抚摸	-16384
拾取	-16385
支配	-16386
放肆	-16387
教皇	-16388
斥道	-16389
方形	-16390
无果	-16391
暗算	-16392
暗道	-16393
有没	-16394
杂质	-16395
来访	-16396
极好	-16397
极淡	-16398
枯黄	-16399
架子	-16400
染上	-16401
根源	-16402
武装	-16403
死吧	-16404
气喘	-16405
水流	-16406
沉浸	-16407
洞中	-16408
活泼	-16409
淡紫	-16410
火网	-16411
灵活	-16412
灼烧	-16413
热气	-16414
猜想	-16415
疙瘩	-16416
硬接	-16417
简短	-16418
精锐	-16419
绿芒	-16420
考普	-16421
者是	-16422
肖炎	-16423
胆敢	-16424
花锦	-16425
药典	-16426
藏身	-16427
蛋糕	-16428
见你	-16429
豪气	-16430
贩卖	-16431
跳舞	-16432
躺着	-16433
过你	-16434
还手	-16435
这部	-16436
送饭	-16437
逃命	-16438
通向	-16439
道长	-16440
醒转	-16441
铁锅	-16442
闪身	-16443
防线	-16444
陵墓	-16445
黄衣	-16446
▁基于	-16447
▁心头	-16448
▁看见	-16449
▁马车	-16450
一圈圈	-16451
一如既	-16452
一片片	-16453
一阵子	-16454
不认识	-16455
不起来	-16456
不那么	-16457
之下的	-16458
也是将	-16459
也都是	-16460
了一份	-16461
于他的	-16462
五霸冈	-16463
他之前	-16464
他有着	-16465
似乎想	-16466
但可惜	-16467
你们是	-16468
倒还好	-16469
倒霉的	-16470
入其中	-16471
刘三爷	-16472
十来秒	-16473
单纯的	-16474
厉声道	-16475
口中的	-16476
合格的	-16477
太师父	-16478
奥巴帕	-16479
她看见	-16480
好多年	-16481
小脸上	-16482
就不是	-16483
左右后	-16484
巨石上	-16485
庭广众	-16486
总不能	-16487
成粉末	-16488
把握到	-16489
放回了	-16490
教会和	-16491
方才能	-16492
无声地	-16493
早知道	-16494
晋升为	-16495
暗红的	-16496
有了点	-16497
来形容	-16498
海盗团	-16499
漫不经	-16500
的一笑	-16501
的下场	-16502
的信仰	-16503
的核心	-16504
的肩膀	-16505
的门口	-16506
的面庞	-16507
石壁上	-16508
确实有	-16509
离开后	-16510
突飞猛	-16511
简单单	-16512
算不上	-16513
紫黑色	-16514
给了他	-16515
缭绕的	-16516
而若是	-16517
观察起	-16518
让我来	-16519
足以和	-16520
这一天	-16521
这个小	-16522
都有着	-16523
随时会	-16524
麻烦的	-16525
黑衣人	-16526
▁他打算	-16527
▁向问天	-16528
▁海波东	-16529
也是颇为	-16530
也许就是	-16531
你为什么	-16532
你的实力	-16533
到哪里去	-16534
半透明的	-16535
却是猛的	-16536
却是骤然	-16537
另外一处	-16538
只有序列	-16539
各不相同	-16540
吱呀一声	-16541
四分五裂	-16542
堕落母神	-16543
大概率是	-16544
好半晌后	-16545
宝山老人	-16546
对萧炎的	-16547
巴掌大小	-16548
心理准备	-16549
感谢你的	-16550
抵御而下	-16551
无可奈何	-16552
望着那张	-16553
猎魔子弹	-16554
的能量罩	-16555
盘膝而坐	-16556
瞧了一眼	-16557
第四纪的	-16558
简简单单	-16559
缓缓闭上	-16560
老不死的	-16561
考普斯蒂	-16562
萧炎二人	-16563
萧炎突然	-16564
见令狐冲	-16565
还来不及	-16566
这么容易	-16567
金边眼镜	-16568
闪电风暴	-16569
青红血液	-16570
青铜大门	-16571
高背椅上	-16572
黑白子道	-16573
▁喝声落下	-16574
▁望着那些	-16575
停下了脚步	-16576
冷哼了一声	-16577
历史孔隙里	-16578
悬浮在半空	-16579
斯坦顿先生	-16580
极为恐怖的	-16581
萧炎轻声道	-16582
融合在一起	-16583
赤红的火焰	-16584
这片天地间	-16585
顿时爆发出	-16586
▁看到这一幕	-16587
双排扣长礼服	-16588
回到现实世界	-16589
的叹了一口气	-16590
萧炎面色也是	-16591
阿尔杰威尔逊	-16592
略显苍老的嗓音	-16593
缓缓的点了点头	-16594
非凡特性聚合定律	-16595
萧炎无奈的摇了摇头	-16596
2,	-16597
三是	-16598
不识	-16599
不走	-16600
也对	-16601
争执	-16602
争辩	-16603
你我	-16604
你敢	-16605
侮辱	-16606
全面	-16607
再现	-16608
军火	-16609
出神	-16610
剔透	-16611
剧场	-16612
匹马	-16613
半转	-16614
取胜	-16615
听闻	-16616
吸扯	-16617
呆愣	-16618
呕吐	-16619
咽下	-16620
喜道	-16621
喷涌	-16622
四条	-16623
因故	-16624
壁钟	-16625
大街	-16626
失手	-16627
女巫	-16628
好酒	-16629
实则	-16630
宣告	-16631
密契	-16632
少不	-16633
居室	-16634
巨鼎	-16635
已至	-16636
市政	-16637
布告	-16638
布局	-16639
开销	-16640
式的	-16641
强势	-16642
得一	-16643
心怀	-16644
忽视	-16645
怪人	-16646
情妇	-16647
慌不	-16648
懒懒	-16649
成不	-16650
房内	-16651
所指	-16652
打手	-16653
抓去	-16654
控火	-16655
撤离	-16656
擒拿	-16657
放的	-16658
无波	-16659
时所	-16660
更大	-16661
最佳	-16662
来我	-16663
来路	-16664
枪尖	-16665
求助	-16666
沸沸	-16667
治伤	-16668
洒落	-16669
消瘦	-16670
深夜	-16671
清朗	-16672
潇洒	-16673
激怒	-16674
灵动	-16675
焦距	-16676
焰分	-16677
犯了	-16678
玄奥	-16679
田某	-16680
白昼	-16681
的中	-16682
眼熟	-16683
眼红	-16684
知觉	-16685
糊涂	-16686
索取	-16687
约束	-16688
而知	-16689
自觉	-16690
药香	-16691
蕴藏	-16692
蛟兽	-16693
表层	-16694
西亚	-16695
要杀	-16696
话时	-16697
财产	-16698
跨越	-16699
跪地	-16700
这把	-16701
远胜	-16702
造型	-16703
那段	-16704
部的	-16705
钟声	-16706
铁板	-16707
陡峭	-16708
险的	-16709
随风	-16710
顺眼	-16711
馈赠	-16712
马桶	-16713
马蹄	-16714
高声	-16715
▁伊恩	-16716
▁但他	-16717
▁第十	-16718
▁这和	-16719
▁这次	-16720
下午茶	-16721
不应该	-16722
不敢说	-16723
之中所	-16724
似乎要	-16725
你体内	-16726
再怎么	-16727
厚实的	-16728
只要有	-16729
圈子里	-16730
在我们	-16731
在距离	-16732
在身后	-16733
如何能	-16734
将事情	-16735
尚还有	-16736
居然连	-16737
已成为	-16738
强忍着	-16739
当年那	-16740
急匆匆	-16741
恭恭敬	-16742
我便是	-16743
我萧炎	-16744
我魂族	-16745
手掌轻	-16746
扣动了	-16747
拼命的	-16748
摇了摇	-16749
攻击力	-16750
无暗之	-16751
晚上好	-16752
更好地	-16753
有信心	-16754
未来的	-16755
杀了我	-16756
深沉的	-16757
潮水般	-16758
的主宰	-16759
的人生	-16760
的呓语	-16761
的好处	-16762
的源头	-16763
的秘偶	-16764
的缓缓	-16765
的聚会	-16766
的莎伦	-16767
的道理	-16768
的青丝	-16769
的黑炎	-16770
直接的	-16771
直觉地	-16772
看着他	-16773
眷者的	-16774
称之为	-16775
空地上	-16776
等人物	-16777
而出现	-16778
而此刻	-16779
能发现	-16780
落入了	-16781
蜘蛛网	-16782
解开了	-16783
认真的	-16784
让自身	-16785
走进了	-16786
越想越	-16787
转瞬间	-16788
还能够	-16789
这一手	-16790
那一霎	-16791
那也不	-16792
那些人	-16793
都只是	-16794
都只能	-16795
阴森森	-16796
高高的	-16797
魂婴果	-16798
黑死号	-16799
黑湮军	-16800
▁不知道	-16801
▁玄空子	-16802
三色火莲	-16803
不是没有	-16804
不甚在意	-16805
也不得不	-16806
也是徐徐	-16807
也是相当	-16808
也是越加	-16809
了十几秒	-16810
从衣兜里	-16811
他的意料	-16812
便是猛的	-16813
其他势力	-16814
再度变得	-16815
几乎可以	-16816
创造一切	-16817
半圣傀儡	-16818
又有甚么	-16819
另一人道	-16820
告诉他们	-16821
呢制大衣	-16822
喷薄而出	-16823
嗓音低沉	-16824
四种异火	-16825
在云岚宗	-16826
地面之上	-16827
就是这样	-16828
幽海蛟兽	-16829
忽然变得	-16830
恐怕也就	-16831
恭恭敬敬	-16832
悬空而立	-16833
方丈大师	-16834
旋即化为	-16835
暴冲而去	-16836
注视之下	-16837
浩瀚气息	-16838
清醒过来	-16839
直接是被	-16840
笑了两声	-16841
笑着问道	-16842
红葡萄酒	-16843
能够得到	-16844
脚掌一踏	-16845
自己召唤	-16846
身体便是	-16847
还有不少	-16848
远远超过	-16849
退后一步	-16850
透着一股	-16851
随着一道	-16852
飞掠而出	-16853
魔药名称	-16854
黑暗之中	-16855
▁对于这些	-16856
▁接下来的	-16857
▁这意味着	-16858
于尔根律师	-16859
以他的实力	-16860
军情九处的	-16861
千丈庞大的	-16862
存在一定的	-16863
微眯着眸子	-16864
截然不同的	-16865
抽搐了一下	-16866
森白色火焰	-16867
正常情况下	-16868
突然出现的	-16869
能够感觉到	-16870
莫名其妙的	-16871
觉得自己的	-16872
陷入了沉默	-16873
▁威尔昂赛汀	-16874
伸了一个懒腰	-16875
的火属性能量	-16876
萧炎眉头也是	-16877
萧炎眼中也是	-16878
贝克兰德教区	-16879
▁微微点了点头	-16880
白银城探索小队	-16881
萧炎微微点了点头	-16882
#^	-16883
an	-16884
▁五	-16885
▁轰	-16886
一同	-16887
一探	-16888
七个	-16889
七幻	-16890
七道	-16891
三层	-16892
不值	-16893
中域	-16894
丹晨	-16895
之子	-16896
之语	-16897
九天	-16898
九彩	-16899
乡村	-16900
人设	-16901
他只	-16902
伙伴	-16903
便不	-16904
倒塌	-16905
假设	-16906
光茧	-16907
六百	-16908
关门	-16909
再加	-16910
决不	-16911
凝结	-16912
击打	-16913
分解	-16914
制定	-16915
前踏	-16916
办事	-16917
历代	-16918
反常	-16919
可又	-16920
后代	-16921
向左	-16922
和人	-16923
喷泉	-16924
嗔道	-16925
器官	-16926
噬浪	-16927
墨冉	-16928
头晕	-16929
女工	-16930
好在	-16931
好玩	-16932
如愿	-16933
妙极	-16934
宝座	-16935
实体	-16936
小克	-16937
小巧	-16938
就行	-16939
就走	-16940
尸骸	-16941
干笑	-16942
平民	-16943
幻想	-16944
张扬	-16945
弩张	-16946
当众	-16947
恐吓	-16948
恩师	-16949
惹人	-16950
感冒	-16951
我刚	-16952
我听	-16953
打定	-16954
护送	-16955
报道	-16956
振奋	-16957
挺拔	-16958
探查	-16959
故乡	-16960
敌对	-16961
斯考	-16962
更浓	-16963
未闻	-16964
本领	-16965
枕头	-16966
标记	-16967
格蕾	-16968
森罗	-16969
次数	-16970
死活	-16971
水灵	-16972
流畅	-16973
混合	-16974
滴滴	-16975
爱情	-16976
犯罪	-16977
玄异	-16978
玄衣	-16979
理睬	-16980
用餐	-16981
畸形	-16982
白家	-16983
白玉	-16984
的玉	-16985
真地	-16986
破败	-16987
称赞	-16988
简略	-16989
繁华	-16990
缩在	-16991
而有	-16992
胃袋	-16993
胆怯	-16994
胆颤	-16995
背靠	-16996
能耐	-16997
脱落	-16998
腿上	-16999
自会	-17000
自傲	-17001
被你	-17002
要我	-17003
见性	-17004
讯息	-17005
贡根	-17006
贯注	-17007
跃上	-17008
跳下	-17009
身下	-17010
转到	-17011
转瞬	-17012
轻喝	-17013
过他	-17014
迈开	-17015
遗产	-17016
遨游	-17017
那大	-17018
那头	-17019
银袍	-17020
长得	-17021
间谍	-17022
难缠	-17023
顶层	-17024
风度	-17025
飞奔	-17026
飞起	-17027
馅饼	-17028
鲜花	-17029
默许	-17030
龙吟	-17031
龙眼	-17032
!”,	-17033
#^^	-17034
▁一拳	-17035
▁云韵	-17036
▁宽敞	-17037
▁待得	-17038
不小啊	-17039
不相信	-17040
与琥嘉	-17041
为中心	-17042
之地的	-17043
也是从	-17044
了脚步	-17045
什么是	-17046
他自然	-17047
以手按	-17048
你也是	-17049
你以为	-17050
保险柜	-17051
候老怪	-17052
停留于	-17053
六师弟	-17054
其中所	-17055
其周身	-17056
冲向了	-17057
凝固的	-17058
凰血精	-17059
出去的	-17060
办不到	-17061
十几年	-17062
千药坊	-17063
半只脚	-17064
危险了	-17065
古朴的	-17066
可一旦	-17067
可毕竟	-17068
后方的	-17069
告诉她	-17070
和阿蒙	-17071
在即将	-17072
在外界	-17073
在我的	-17074
坐落在	-17075
声响中	-17076
夜晚的	-17077
头顶的	-17078
她没有	-17079
完全不	-17080
对我的	-17081
将一些	-17082
将他的	-17083
带上了	-17084
带兜帽	-17085
帮助我	-17086
广场的	-17087
引来了	-17088
很明显	-17089
必须有	-17090
我所料	-17091
扫过了	-17092
拔弩张	-17093
斯考尔	-17094
桃干仙	-17095
点了点	-17096
猜到了	-17097
现在了	-17098
的手套	-17099
的注意	-17100
的经历	-17101
的规矩	-17102
的诡异	-17103
的那番	-17104
的队伍	-17105
的面色	-17106
着一只	-17107
笑问道	-17108
等着我	-17109
红烟囱	-17110
约瑟夫	-17111
而下的	-17112
耐心地	-17113
肩膀上	-17114
能找到	-17115
落下地	-17116
说自己	-17117
赞叹道	-17118
超越了	-17119
这一击	-17120
这让我	-17121
通识者	-17122
青灵涎	-17123
▁伊康瑟	-17124
▁如今的	-17125
▁田伯光	-17126
▁第二十	-17127
▁美杜莎	-17128
▁考虑到	-17129
▁随着这	-17130
不知多少	-17131
丝毫没有	-17132
两位长老	-17133
代表什么	-17134
令狐兄弟	-17135
作为一个	-17136
便是带着	-17137
六星斗尊	-17138
危险程度	-17139
吞噬之力	-17140
噗的一声	-17141
天冥老妖	-17142
如此的话	-17143
嫣然笑道	-17144
已经没有	-17145
并未持续	-17146
序列途径	-17147
开启灵视	-17148
微微一惊	-17149
心头都是	-17150
忽然有些	-17151
无人能够	-17152
最后尽数	-17153
有所猜测	-17154
未曾想到	-17155
林震南道	-17156
某些事情	-17157
沸沸扬扬	-17158
焰分噬浪	-17159
猛然一握	-17160
环顾四周	-17161
白衣女子	-17162
的灵魂体	-17163
的盯着那	-17164
的老家伙	-17165
破风声响	-17166
祖千秋道	-17167
竟然已经	-17168
笑眯眯的	-17169
米尔贡根	-17170
缓步而出	-17171
萧炎拳头	-17172
蔷薇主教	-17173
虽然有些	-17174
话音落下	-17175
越来越大	-17176
还未完全	-17177
闪掠而去	-17178
靠着椅背	-17179
首席阁下	-17180
魔法标识	-17181
一道巨大的	-17182
七幻青灵涎	-17183
了一段距离	-17184
了这么多年	-17185
低声自语道	-17186
吐了口气道	-17187
回加玛帝国	-17188
坦然回答道	-17189
开启了灵视	-17190
打了个哈欠	-17191
浮现了出来	-17192
狠狠的砸在	-17193
生骨融血丹	-17194
的空间虫洞	-17195
皱了皱眉头	-17196
碧绿的眼眸	-17197
自己的房间	-17198
解释了一句	-17199
雪伦夫人的	-17200
非凡特性的	-17201
▁望着萧炎那	-17202
出现在了萧炎	-17203
宛如实质般的	-17204
小心翼翼的将	-17205
数百丈庞大的	-17206
来到灰雾之上	-17207
艾弥留斯利维	-17208
黑色郁金香号	-17209
▁听得萧炎此话	-17210
斑驳长桌的边缘	-17211
自体内暴涌而出	-17212
▁突如其来的变故	-17213
(2	-17214
一事	-17215
一咬	-17216
七阶	-17217
万事	-17218
三条	-17219
三根	-17220
下垂	-17221
不宜	-17222
东面	-17223
丢了	-17224
两旁	-17225
于人	-17226
于地	-17227
他最	-17228
以求	-17229
休的	-17230
何事	-17231
你却	-17232
你都	-17233
便得	-17234
便由	-17235
修罗	-17236
倒在	-17237
借用	-17238
兽皮	-17239
写下	-17240
冰鹤	-17241
决战	-17242
刀锋	-17243
则有	-17244
刚动	-17245
创作	-17246
到你	-17247
十足	-17248
十道	-17249
半丈	-17250
协会	-17251
卡隆	-17252
卧虎	-17253
印证	-17254
去见	-17255
去过	-17256
又不	-17257
发作	-17258
取决	-17259
叛徒	-17260
口道	-17261
只因	-17262
可靠	-17263
同类	-17264
吹得	-17265
呐喊	-17266
回缩	-17267
圆腹	-17268
坟墓	-17269
城内	-17270
墙角	-17271
外号	-17272
外泄	-17273
多玛	-17274
大桥	-17275
夹着	-17276
奇效	-17277
她所	-17278
妇人	-17279
子弟	-17280
安定	-17281
将是	-17282
尊贵	-17283
少说	-17284
并在	-17285
并派	-17286
广告	-17287
底气	-17288
弄出	-17289
得越	-17290
循着	-17291
微颤	-17292
怨念	-17293
我倒	-17294
截了	-17295
投去	-17296
拉朽	-17297
招待	-17298
挽救	-17299
揭开	-17300
收下	-17301
政治	-17302
无存	-17303
无知	-17304
更久	-17305
月底	-17306
林家	-17307
模式	-17308
步枪	-17309
水光	-17310
水液	-17311
永久	-17312
淡青	-17313
深厚	-17314
深海	-17315
混血	-17316
滴落	-17317
灌入	-17318
灵药	-17319
焦点	-17320
熏烤	-17321
物质	-17322
生涩	-17323
疑心	-17324
痛快	-17325
白鲨	-17326
着嘴	-17327
祝贺	-17328
突袭	-17329
立场	-17330
等会	-17331
粗犷	-17332
精芒	-17333
紫黑	-17334
繁衍	-17335
翠西	-17336
耳光	-17337
胆小	-17338
胡闹	-17339
舍得	-17340
舞蹈	-17341
苍蝇	-17342
茂密	-17343
落个	-17344
蒙着	-17345
血光	-17346
血统	-17347
衬托	-17348
装有	-17349
裙子	-17350
西维	-17351
要做	-17352
要在	-17353
议团	-17354
设定	-17355
诱导	-17356
谁的	-17357
赋予	-17358
走动	-17359
踏步	-17360
转念	-17361
辨别	-17362
选项	-17363
逗留	-17364
遮挡	-17365
那处	-17366
采访	-17367
重心	-17368
链条	-17369
长了	-17370
雷族	-17371
雷欧	-17372
震散	-17373
顿下	-17374
顿在	-17375
预知	-17376
飘落	-17377
骚乱	-17378
400	-17379
▁今天	-17380
▁半空	-17381
▁哪怕	-17382
▁当初	-17383
▁来到	-17384
▁比起	-17385
▁瞬息	-17386
一个大	-17387
一定是	-17388
一直没	-17389
与外界	-17390
与柳擎	-17391
专业的	-17392
中产阶	-17393
也已经	-17394
也没法	-17395
了一分	-17396
了几眼	-17397
他刚才	-17398
以一个	-17399
任先生	-17400
会直接	-17401
传出的	-17402
传进了	-17403
入口处	-17404
冲出了	-17405
冷笑着	-17406
副院长	-17407
占卜的	-17408
却也不	-17409
厚重的	-17410
双眸中	-17411
在整个	-17412
地声音	-17413
声笑道	-17414
多半是	-17415
多小时	-17416
大陆的	-17417
天灵盖	-17418
奔向了	-17419
她似乎	-17420
如果真	-17421
子一般	-17422
实质的	-17423
封不平	-17424
将近百	-17425
就知道	-17426
山谷中	-17427
建立起	-17428
弗莱娅	-17429
心智体	-17430
怎么能	-17431
怎么都	-17432
总是会	-17433
我以为	-17434
我们先	-17435
我们有	-17436
我早就	-17437
战斗中	-17438
战斗的	-17439
掌心处	-17440
推了推	-17441
提醒你	-17442
放入了	-17443
有兴趣	-17444
有这等	-17445
本地人	-17446
来这里	-17447
构成的	-17448
枯拉朽	-17449
灰白色	-17450
炼药系	-17451
爆发了	-17452
爆发的	-17453
的一张	-17454
的光泽	-17455
的大地	-17456
的把握	-17457
的脸孔	-17458
的那场	-17459
的食物	-17460
着一分	-17461
着柳眉	-17462
着眼眸	-17463
知道我	-17464
祈祷厅	-17465
笑容的	-17466
笔记本	-17467
簇拥着	-17468
粗壮的	-17469
精灵王	-17470
绕是以	-17471
老爷爷	-17472
至于那	-17473
艰难地	-17474
若是在	-17475
萧炎是	-17476
萧门主	-17477
被彻底	-17478
评议团	-17479
说的是	-17480
说这些	-17481
这让他	-17482
那我就	-17483
那般的	-17484
都变得	-17485
金雁宗	-17486
魂族的	-17487
‘0—0	-17488
▁听得那	-17489
▁房间内	-17490
▁砰砰砰	-17491
一声冷喝	-17492
一声轻叹	-17493
一股寒意	-17494
一道低沉	-17495
七品中级	-17496
不再犹豫	-17497
乘坐马车	-17498
什么样子	-17499
令狐少侠	-17500
以及一些	-17501
以手按胸	-17502
会有什么	-17503
伦纳德的	-17504
倒射而出	-17505
倒是显得	-17506
借助冥想	-17507
其余成员	-17508
具体情况	-17509
几位长老	-17510
凶悍无匹	-17511
刚才那位	-17512
剑拔弩张	-17513
千万不要	-17514
半神层次	-17515
厄难毒女	-17516
双翼一振	-17517
可以通过	-17518
噬金鼠族	-17519
因为一些	-17520
在一旁的	-17521
在他面前	-17522
在那众多	-17523
声音之中	-17524
天地间的	-17525
天际之边	-17526
头顶之上	-17527
完毕之后	-17528
小医仙那	-17529
小心一点	-17530
应该就能	-17531
应该能够	-17532
战斗经验	-17533
手指轻轻	-17534
手掌一招	-17535
扩散开来	-17536
放在心上	-17537
旋即眼中	-17538
望着远处	-17539
炽热温度	-17540
现在已经	-17541
的伦纳德	-17542
硬生生的	-17543
秘密之书	-17544
第三更到	-17545
精神烙印	-17546
脸上一红	-17547
脸色有些	-17548
西维拉斯	-17549
越来越快	-17550
还真以为	-17551
这么多人	-17552
这片天际	-17553
这般速度	-17554
退后两步	-17555
金盆洗手	-17556
▁克里维斯	-17557
▁岳灵珊道	-17558
▁瞧得萧炎	-17559
一点也没有	-17560
五轮离火法	-17561
但最终还是	-17562
克莱恩嘴角	-17563
克莱恩缓慢	-17564
半神半人的	-17565
反问了一句	-17566
召唤出来的	-17567
好奇地问道	-17568
岳不群夫妇	-17569
并不是什么	-17570
扣动了扳机	-17571
焰分噬浪尺	-17572
然后缓缓的	-17573
若有若无的	-17574
青莲的心火	-17575
风暴教会的	-17576
▁几乎是同时	-17577
▁听到这句话	-17578
一口鲜血喷出	-17579
便是闪现而出	-17580
克莱恩的身影	-17581
森白色的火焰	-17582
眼睁睁的看着	-17583
终于是逐渐的	-17584
远古太阳神的	-17585
......‘	-17586
也是松了一口气	-17587
萧炎迟疑了一下	-17588
这才松了一口气	-17589
遗留的非凡特性	-17590
默默的点了点头	-17591
-”	-17592
5“	-17593
▁真	-17594
。)	-17595
一死	-17596
一连	-17597
下楼	-17598
下行	-17599
不听	-17600
不善	-17601
不济	-17602
不灭	-17603
丝线	-17604
两处	-17605
之命	-17606
五年	-17607
五根	-17608
交汇	-17609
人院	-17610
们都	-17611
众所	-17612
保命	-17613
兄妹	-17614
光与	-17615
克星	-17616
八人	-17617
再多	-17618
冲向	-17619
凝实	-17620
几千	-17621
几米	-17622
出动	-17623
出卖	-17624
前一	-17625
剑锋	-17626
升级	-17627
单刀	-17628
单身	-17629
卖掉	-17630
去年	-17631
双双	-17632
发誓	-17633
同辈	-17634
吹拂	-17635
哥特	-17636
嘶喊	-17637
囚牢	-17638
四品	-17639
圆球	-17640
地向	-17641
外貌	-17642
多亏	-17643
大感	-17644
失误	-17645
奇克	-17646
好气	-17647
威名	-17648
婆娘	-17649
宣称	-17650
富有	-17651
尊崇	-17652
工会	-17653
巧妙	-17654
庄严	-17655
引路	-17656
弱的	-17657
归还	-17658
当是	-17659
当机	-17660
很低	-17661
怨恨	-17662
戈斯	-17663
成名	-17664
扇动	-17665
扑面	-17666
扫描	-17667
扯了	-17668
承载	-17669
折腾	-17670
拜托	-17671
按着	-17672
捏住	-17673
换成	-17674
描淡	-17675
提上	-17676
救援	-17677
无赖	-17678
暗金	-17679
更快	-17680
曼妙	-17681
有利	-17682
木然	-17683
杀害	-17684
来时	-17685
林间	-17686
歇尔	-17687
歌颂	-17688
正的	-17689
沃尔	-17690
沸腾	-17691
洁白	-17692
涌去	-17693
温凉	-17694
满面	-17695
灵境	-17696
烛光	-17697
狐狸	-17698
独立	-17699
琴声	-17700
白云	-17701
的有	-17702
相接	-17703
真名	-17704
石块	-17705
租住	-17706
突有	-17707
立断	-17708
等价	-17709
素质	-17710
索索	-17711
纯青	-17712
纽扣	-17713
缴纳	-17714
老道	-17715
耳熟	-17716
肃穆	-17717
至关	-17718
舞台	-17719
艘船	-17720
药物	-17721
落脚	-17722
葬身	-17723
薛崩	-17724
藏百	-17725
蛮荒	-17726
行业	-17727
行迹	-17728
被谁	-17729
解散	-17730
记着	-17731
说你	-17732
请假	-17733
谈论	-17734
轻功	-17735
较高	-17736
造诣	-17737
都快	-17738
锻炼	-17739
陪着	-17740
雷击	-17741
霍伊	-17742
鞠躬	-17743
饮料	-17744
高地	-17745
高文	-17746
魁梧	-17747
(2)	-17748
▁一名	-17749
▁安静	-17750
▁巴顿	-17751
▁当年	-17752
▁戴着	-17753
▁队长	-17754
一层层	-17755
不死鸟	-17756
不管他	-17757
不经意	-17758
不要脸	-17759
与吴昊	-17760
也正如	-17761
乳白色	-17762
了一枚	-17763
二师哥	-17764
人人都	-17765
从那里	-17766
但也是	-17767
但只要	-17768
低笑道	-17769
你之前	-17770
你们了	-17771
你们有	-17772
你是谁	-17773
你这次	-17774
你这般	-17775
依旧在	-17776
全自动	-17777
公会的	-17778
其余人	-17779
再也不	-17780
出去了	-17781
副教授	-17782
动也不	-17783
动身吧	-17784
却只是	-17785
压抑着	-17786
原本是	-17787
又一遍	-17788
反而会	-17789
只能在	-17790
可萧炎	-17791
号召力	-17792
吐出了	-17793
和一个	-17794
回忆起	-17795
因为在	-17796
在见到	-17797
大喝道	-17798
夸张的	-17799
好几秒	-17800
如此说	-17801
射来的	-17802
小男孩	-17803
就必须	-17804
岩浆柱	-17805
己之力	-17806
很厉害	-17807
得不错	-17808
怪异的	-17809
成不忧	-17810
我发现	-17811
我父亲	-17812
房间里	-17813
按在了	-17814
掠而去	-17815
摇着头	-17816
敲打着	-17817
斯维因	-17818
是假的	-17819
显露出	-17820
暗中的	-17821
更大的	-17822
曾经在	-17823
有了种	-17824
没料到	-17825
深深地	-17826
玉音子	-17827
用灵性	-17828
男人的	-17829
疯人院	-17830
疯船长	-17831
的光辉	-17832
的响起	-17833
的小脸	-17834
的异常	-17835
的徽章	-17836
的心脏	-17837
的恐惧	-17838
的投影	-17839
的等级	-17840
的联系	-17841
的街道	-17842
的风声	-17843
盘坐于	-17844
着一根	-17845
着黛眉	-17846
米歇尔	-17847
而且在	-17848
能量网	-17849
脑袋上	-17850
血液的	-17851
被污染	-17852
谢谢了	-17853
跟随着	-17854
跳动着	-17855
还有点	-17856
这似乎	-17857
这名字	-17858
这时候	-17859
这模样	-17860
这种话	-17861
这许多	-17862
逆时针	-17863
通缉令	-17864
那一刻	-17865
那么这	-17866
那我也	-17867
那汉子	-17868
那领头	-17869
都仿佛	-17870
问一问	-17871
问题是	-17872
鸣之声	-17873
黯淡的	-17874
”...	-17875
▁他迅速	-17876
▁余沧海	-17877
▁文德尔	-17878
▁第七百	-17879
一不小心	-17880
一点也没	-17881
不可置信	-17882
不少强者	-17883
不差的话	-17884
之前那个	-17885
五星斗圣	-17886
伟大存在	-17887
似乎并不	-17888
低沉说道	-17889
便是会被	-17890
划过一抹	-17891
刚刚进入	-17892
刚才那个	-17893
到了他的	-17894
到了极点	-17895
勾起一抹	-17896
十几分钟	-17897
古凰血精	-17898
可惜的是	-17899
喝了一口	-17900
在了那里	-17901
地点头道	-17902
女仆安妮	-17903
少林寺中	-17904
忍耐不住	-17905
成了一片	-17906
我知道你	-17907
或许可以	-17908
摧枯拉朽	-17909
斗宗层次	-17910
无穷无尽	-17911
最后犹如	-17912
有些愕然	-17913
有着什么	-17914
桃叶仙道	-17915
毫无预兆	-17916
没有多少	-17917
清楚不过	-17918
炼制出来	-17919
爆炸声响	-17920
甚至于连	-17921
疑惑问道	-17922
目光却是	-17923
竖了起来	-17924
粉红色的	-17925
紧随而上	-17926
缓缓响起	-17927
缓缓抬头	-17928
萧炎身上	-17929
虚拟人格	-17930
走向门口	-17931
躬身行礼	-17932
轻轻一笑	-17933
这个消息	-17934
远古八族	-17935
远古天蛇	-17936
都是感到	-17937
重要的是	-17938
长时间的	-17939
阿尔戈斯	-17940
黑雾之中	-17941
▁天火尊者	-17942
不敢有丝毫	-17943
中回过神来	-17944
五品炼药师	-17945
拇指大小的	-17946
梅纳德议员	-17947
滚动了一下	-17948
熟悉的身影	-17949
的灵魂波动	-17950
的血脉之力	-17951
的那些家伙	-17952
碰撞在一起	-17953
紫褐色火焰	-17954
缺乏足够的	-17955
脸色凝重的	-17956
药老笑了笑	-17957
萧炎目光在	-17958
萧炎缓缓的	-17959
身体之上的	-17960
迎面而来的	-17961
“2049”	-17962
一名斗皇强者	-17963
创造一切的主	-17964
到了灰雾之上	-17965
大地母神教会	-17966
对于他们来说	-17967
心理炼金会的	-17968
感受到了一种	-17969
然后目光转向	-17970
米特尔家族的	-17971
▁直到这个时候	-17972
目光死死的盯着	-17973
终于是忍不住的	-17974
罗塞尔古斯塔夫	-17975
贝克兰德桥区域	-17976
拍了拍萧炎的肩膀	-17977
微不可见地点了下头	-17978
安提哥努斯家族的笔记	-17979
(4	-17980
0,	-17981
3)	-17982
9,	-17983
hu	-17984
’?	-17985
▁"	-17986
一字	-17987
一米	-17988
不浅	-17989
不适	-17990
丢掉	-17991
为数	-17992
之又	-17993
之能	-17994
事前	-17995
云督	-17996
交通	-17997
人啊	-17998
人智	-17999
仅靠	-18000
仇松	-18001
从没	-18002
他自	-18003
以她	-18004
件事	-18005
低落	-18006
体形	-18007
侍从	-18008
依据	-18009
倒射	-18010
停步	-18011
傻瓜	-18012
关卡	-18013
几张	-18014
别想	-18015
势必	-18016
半疯	-18017
协议	-18018
又得	-18019
双指	-18020
句子	-18021
吆喝	-18022
咳咳	-18023
哪种	-18024
唾液	-18025
商业	-18026
嘶嘶	-18027
回神	-18028
地址	-18029
坚毅	-18030
墨水	-18031
壮大	-18032
外力	-18033
大伤	-18034
失措	-18035
字迹	-18036
宠物	-18037
审查	-18038
对外	-18039
对立	-18040
尊老	-18041
尸首	-18042
岂知	-18043
巧言	-18044
师爷	-18045
并将	-18046
幽泉	-18047
度假	-18048
当事	-18049
必备	-18050
恶臭	-18051
感触	-18052
成型	-18053
我家	-18054
才对	-18055
打的	-18056
投给	-18057
拉近	-18058
拼死	-18059
掠下	-18060
接手	-18061
推辞	-18062
摩挲	-18063
无损	-18064
无言	-18065
本宗	-18066
松气	-18067
枪袋	-18068
根茎	-18069
棕发	-18070
正派	-18071
死不	-18072
洗礼	-18073
浓密	-18074
火炮	-18075
烛台	-18076
王族	-18077
王朝	-18078
琴谱	-18079
生了	-18080
畅快	-18081
略带	-18082
的吗	-18083
盘子	-18084
盯上	-18085
看的	-18086
真话	-18087
眼下	-18088
确信	-18089
祖父	-18090
算上	-18091
繁殖	-18092
纳灵	-18093
罗成	-18094
考查	-18095
而走	-18096
肉球	-18097
胜败	-18098
脸露	-18099
腰部	-18100
自保	-18101
若说	-18102
药草	-18103
要来	-18104
误导	-18105
说辞	-18106
谈何	-18107
超出	-18108
蹲下	-18109
过世	-18110
远图	-18111
遵从	-18112
那火	-18113
都统	-18114
重建	-18115
重归	-18116
钟乳	-18117
钱的	-18118
长叹	-18119
门主	-18120
门派	-18121
闯入	-18122
附属	-18123
难掩	-18124
雪茄	-18125
雾水	-18126
震裂	-18127
预计	-18128
,“”	-18129
▁““	-18130
▁完成	-18131
一路上	-18132
万金镑	-18133
不能让	-18134
两年前	-18135
之气的	-18136
也一样	-18137
也不行	-18138
也应该	-18139
也是得	-18140
了足足	-18141
从衣物	-18142
他本身	-18143
位格和	-18144
做起了	-18145
其身旁	-18146
内院中	-18147
冒出了	-18148
出一些	-18149
副画面	-18150
劈而下	-18151
包裹下	-18152
占星人	-18153
又有些	-18154
可他们	-18155
合理的	-18156
在两人	-18157
在那片	-18158
地斗气	-18159
埃里克	-18160
处理好	-18161
大地的	-18162
女孩子	-18163
寻找着	-18164
尖叫声	-18165
强横的	-18166
得很好	-18167
得让人	-18168
忽然从	-18169
怒声道	-18170
总归是	-18171
总督府	-18172
想必是	-18173
慢吞吞	-18174
所察觉	-18175
手印的	-18176
手忙脚	-18177
手臂上	-18178
报纸上	-18179
掌控着	-18180
掺杂着	-18181
搜集到	-18182
撇嘴道	-18183
是一张	-18184
比萧炎	-18185
涌出的	-18186
的一拳	-18187
的决定	-18188
的右手	-18189
的命运	-18190
的安排	-18191
的窗户	-18192
的过程	-18193
的这般	-18194
的顶端	-18195
的高手	-18196
着脑袋	-18197
等事物	-18198
缓缓从	-18199
翻腾的	-18200
而有所	-18201
能有效	-18202
脖子上	-18203
自行车	-18204
般说道	-18205
记录官	-18206
诡异地	-18207
资深的	-18208
轻松就	-18209
还记得	-18210
这需要	-18211
逊色于	-18212
逐渐变	-18213
那他们	-18214
那犹如	-18215
那里有	-18216
都需要	-18217
队长的	-18218
青莲座	-18219
鲁恩语	-18220
龙卧虎	-18221
▁就在他	-18222
▁瓦尔特	-18223
▁盈盈道	-18224
▁看了眼	-18225
▁第三十	-18226
一般说来	-18227
三个小时	-18228
不太清楚	-18229
不正常的	-18230
不过如今	-18231
什么地方	-18232
他也知道	-18233
他们已经	-18234
你们这些	-18235
便是将那	-18236
便是率先	-18237
克莱恩刚	-18238
八星斗宗	-18239
关上房门	-18240
几个小时	-18241
几年时间	-18242
又惊又喜	-18243
发挥作用	-18244
变得透明	-18245
在我面前	-18246
天材地宝	-18247
奈何不了	-18248
奥拉维岛	-18249
对着下方	-18250
希望你能	-18251
当年那个	-18252
当机立断	-18253
径直对着	-18254
微微抬头	-18255
恐怕还真	-18256
打开房门	-18257
晋入斗帝	-18258
来来往往	-18259
此刻却是	-18260
殷红鲜血	-18261
毫不留情	-18262
没有一个	-18263
火云老祖	-18264
灵魂分身	-18265
灵魂本源	-18266
炉火纯青	-18267
的世界里	-18268
的前提下	-18269
的喃喃道	-18270
的意思是	-18271
的黑暗中	-18272
的黑角域	-18273
突飞猛进	-18274
第一反应	-18275
第二百零	-18276
经过先前	-18277
翻身坐起	-18278
而且由于	-18279
脸色铁青	-18280
药老等人	-18281
虚幻之门	-18282
表情严肃	-18283
袖袍中的	-18284
诡异消失	-18285
转运仪式	-18286
近距离的	-18287
这个女人	-18288
这个样子	-18289
这意味着	-18290
难以描述	-18291
风暴一般	-18292
黑色风衣	-18293
黛眉微蹙	-18294
▁灵魂力量	-18295
▁萧炎等人	-18296
一旁的萧炎	-18297
五岳剑派的	-18298
代表着什么	-18299
令得不少人	-18300
克莱恩当即	-18301
克莱恩顿时	-18302
具现出纸笔	-18303
出现了许些	-18304
庞大的身体	-18305
怎么可能会	-18306
沉默了一会	-18307
洛薇雅长老	-18308
萧炎在心中	-18309
虚无的空间	-18310
轻轻点头道	-18311
远古天魔蟒	-18312
重要的事情	-18313
露出了笑容	-18314
克莱恩又一次	-18315
克莱恩想了想	-18316
在贝克兰德的	-18317
在这件事情上	-18318
索伦艾因霍恩	-18319
略微松了一口气	-18320
返回了现实世界	-18321
萧炎笑着点了点头	-18322
索伦艾因霍恩梅迪奇	-18323
脸庞上也是浮现一抹	-18324
2’	-18325
”(	-18326
▁,	-18327
▁。	-18328
▁于	-18329
▁哎	-18330
▁面	-18331
上移	-18332
下床	-18333
丧家	-18334
中期	-18335
丽丝	-18336
义工	-18337
义气	-18338
之巅	-18339
之斧	-18340
也罢	-18341
乱跳	-18342
他去	-18343
他地	-18344
仰望	-18345
作剧	-18346
你倒	-18347
你瞧	-18348
信件	-18349
信赖	-18350
俨然	-18351
充裕	-18352
入门	-18353
六七	-18354
冲哥	-18355
况且	-18356
凹槽	-18357
刀叉	-18358
分神	-18359
初时	-18360
却被	-18361
取其	-18362
吉斯	-18363
后仰	-18364
周边	-18365
呼唤	-18366
咻咻	-18367
在做	-18368
外乡	-18369
大举	-18370
大恩	-18371
天亮	-18372
天国	-18373
头来	-18374
她有	-18375
好歹	-18376
如山	-18377
如遭	-18378
婚礼	-18379
守着	-18380
寒光	-18381
寿命	-18382
尖塔	-18383
就想	-18384
左腕	-18385
巨门	-18386
希奇	-18387
并用	-18388
得快	-18389
得要	-18390
微风	-18391
心急	-18392
愣住	-18393
战力	-18394
房顶	-18395
手拿	-18396
才好	-18397
抽屉	-18398
持会	-18399
指望	-18400
探入	-18401
推进	-18402
操心	-18403
擦了	-18404
无处	-18405
无奇	-18406
早便	-18407
显著	-18408
替他	-18409
有两	-18410
本教	-18411
林朽	-18412
枪口	-18413
毒性	-18414
江南	-18415
沉入	-18416
河谷	-18417
法律	-18418
海怪	-18419
海里	-18420
溢流	-18421
灰蓝	-18422
烤鱼	-18423
牵连	-18424
狂笑	-18425
独行	-18426
琴音	-18427
瑞斯	-18428
瓜葛	-18429
用心	-18430
电芒	-18431
的山	-18432
盲目	-18433
省去	-18434
看待	-18435
看我	-18436
神经	-18437
积极	-18438
筛选	-18439
箭支	-18440
粗气	-18441
精心	-18442
糟了	-18443
纠结	-18444
绝境	-18445
翻出	-18446
翻海	-18447
翻转	-18448
老弟	-18449
耕种	-18450
脉络	-18451
脚跟	-18452
腾腾	-18453
蜂拥	-18454
血洗	-18455
评估	-18456
识相	-18457
贾布	-18458
赤裸	-18459
身侧	-18460
轻咳	-18461
这套	-18462
这招	-18463
这有	-18464
进门	-18465
迷幻	-18466
那由	-18467
错落	-18468
镖师	-18469
阁楼	-18470
阎老	-18471
阴柔	-18472
难受	-18473
难寻	-18474
雄厚	-18475
雨滴	-18476
青筋	-18477
领口	-18478
飞溅	-18479
首饰	-18480
驱邪	-18481
高塔	-18482
鱼肉	-18483
鸟型	-18484
(3)	-18485
(4)	-18486
▁一只	-18487
▁两道	-18488
▁他用	-18489
▁再度	-18490
▁想起	-18491
▁漆黑	-18492
▁艾伦	-18493
一下吧	-18494
一只只	-18495
一闪间	-18496
不在乎	-18497
不敢当	-18498
不论是	-18499
中扫过	-18500
丰富的	-18501
之人的	-18502
也能够	-18503
了一样	-18504
了一根	-18505
了几次	-18506
了解的	-18507
二十岁	-18508
今日便	-18509
他们对	-18510
他明白	-18511
他甚至	-18512
你身上	-18513
便士的	-18514
倒是一	-18515
内部的	-18516
冷冷的	-18517
出其不	-18518
出来时	-18519
分别是	-18520
刷刷刷	-18521
各方面	-18522
否定了	-18523
命中了	-18524
哈吉斯	-18525
太担心	-18526
太过分	-18527
奥德拉	-18528
好一会	-18529
好消息	-18530
对你的	-18531
小孩子	-18532
少镖头	-18533
就听见	-18534
山人海	-18535
差点被	-18536
床榻上	-18537
强力的	-18538
得不到	-18539
得仿佛	-18540
得这般	-18541
怪笑道	-18542
恶作剧	-18543
想一想	-18544
想象的	-18545
我似乎	-18546
我可是	-18547
所覆盖	-18548
手上的	-18549
打量起	-18550
扭曲着	-18551
扯了扯	-18552
描淡写	-18553
无奈地	-18554
最前方	-18555
最高的	-18556
望不见	-18557
没可能	-18558
火焰中	-18559
生命的	-18560
的一抹	-18561
的一枚	-18562
的中心	-18563
的地域	-18564
的地盘	-18565
的居民	-18566
的牙齿	-18567
的祈祷	-18568
的老生	-18569
的趋势	-18570
的钥匙	-18571
的面上	-18572
的香味	-18573
空间中	-18574
第一种	-18575
粗大的	-18576
给你的	-18577
而对于	-18578
良好的	-18579
茫然地	-18580
蒂西亚	-18581
许愿机	-18582
路剑法	-18583
踏入了	-18584
还是有	-18585
连接着	-18586
镜中的	-18587
雷帕德	-18588
靠近了	-18589
风清儿	-18590
黑煞队	-18591
▁一个个	-18592
▁很显然	-18593
▁而对于	-18594
▁随着那	-18595
一股异常	-18596
一阵抽搐	-18597
上将阁下	-18598
不了什么	-18599
不敢直视	-18600
不是一个	-18601
不过若是	-18602
两件事情	-18603
丧家之犬	-18604
五派合并	-18605
他们便是	-18606
他第一次	-18607
他脑海内	-18608
任何一个	-18609
传来一道	-18610
但却依旧	-18611
你也不用	-18612
做点什么	-18613
停下脚步	-18614
克莱恩想	-18615
冲虚道人	-18616
冷哼一声	-18617
半转身体	-18618
可是相当	-18619
嘴巴一张	-18620
因为他的	-18621
因为萧炎	-18622
在江湖上	-18623
大厅中的	-18624
大概率会	-18625
妖火空间	-18626
居然还有	-18627
希尔伯特	-18628
很可能是	-18629
忽然响起	-18630
所以萧炎	-18631
扭曲起来	-18632
控制不住	-18633
推门而入	-18634
收入眼中	-18635
无声自语	-18636
是否可以	-18637
显得极为	-18638
有了新的	-18639
有些出乎	-18640
有着一丝	-18641
某些时候	-18642
梦境行者	-18643
没有犹豫	-18644
消化魔药	-18645
漫不经心	-18646
然后迅速	-18647
狂喷而出	-18648
生命手杖	-18649
略微迟疑	-18650
的海波东	-18651
目光有些	-18652
看清楚了	-18653
眼瞳骤然	-18654
神秘学家	-18655
秘密陵寝	-18656
究竟有多	-18657
站在那里	-18658
脸色皆是	-18659
范围内的	-18660
虽然没有	-18661
表示自己	-18662
袖手旁观	-18663
谁能想到	-18664
谈何容易	-18665
身形暴退	-18666
迎了上去	-18667
那本笔记	-18668
飓风之斧	-18669
▁克莱恩刚	-18670
▁心中念头	-18671
▁说着说着	-18672
一名炼药师	-18673
不知该怎么	-18674
令狐大哥道	-18675
克莱恩之前	-18676
克莱恩霍然	-18677
剧烈的咳嗽	-18678
即便是放眼	-18679
发出了一声	-18680
可怕的力量	-18681
周围的空间	-18682
大部分时候	-18683
揉了揉额头	-18684
有着淡淡的	-18685
现在怎么办	-18686
看见了一个	-18687
自萧炎体内	-18688
萧炎小兄弟	-18689
豪华别墅内	-18690
这件事情上	-18691
这种情况下	-18692
这种级别的	-18693
退后了一步	-18694
鲁恩王国的	-18695
黑角域之中	-18696
▁道恩唐泰斯	-18697
幽蓝复仇者号	-18698
深吐了一口气	-18699
班森和梅丽莎	-18700
的目光注视下	-18701
脚尖一点地面	-18702
虚无空间之中	-18703
在萧炎心中响起	-18704
霍纳奇斯山脉主峰	-18705
▁隔	-18706
一寸	-18707
一簇	-18708
一记	-18709
丁勉	-18710
上架	-18711
不减	-18712
不惧	-18713
中文	-18714
为师	-18715
之类	-18716
乔德	-18717
乖巧	-18718
乱想	-18719
云帆	-18720
仅剩	-18721
会合	-18722
传入	-18723
低笑	-18724
佝偻	-18725
保管	-18726
修因	-18727
停歇	-18728
八名	-18729
公平	-18730
兹尔	-18731
养神	-18732
凑至	-18733
凝血	-18734
出招	-18735
刀疤	-18736
别提	-18737
刺入	-18738
剑鞘	-18739
功能	-18740
危急	-18741
却无	-18742
又再	-18743
发了	-18744
吃过	-18745
向下	-18746
嘈杂	-18747
四仙	-18748
回身	-18749
围在	-18750
地铁	-18751
场所	-18752
墨巴	-18753
壮汉	-18754
大打	-18755
大敌	-18756
好些	-18757
委实	-18758
娇小	-18759
子火	-18760
将人	-18761
小刀	-18762
尺柄	-18763
屠龙	-18764
已成	-18765
巴兹	-18766
布料	-18767
布鲁	-18768
干瘪	-18769
幽默	-18770
异兽	-18771
异彩	-18772
张嘴	-18773
当我	-18774
往事	-18775
怒骂	-18776
思量	-18777
恶毒	-18778
悲惨	-18779
惊奇	-18780
愈合	-18781
愧疚	-18782
慈悲	-18783
所料	-18784
手笔	-18785
手链	-18786
打出	-18787
抄录	-18788
抓了	-18789
拆开	-18790
拍在	-18791
拍拍	-18792
招生	-18793
掩藏	-18794
插嘴	-18795
摆在	-18796
改信	-18797
救你	-18798
无故	-18799
无瞳	-18800
无风	-18801
星球	-18802
是吗	-18803
曲卷	-18804
最新	-18805
木家	-18806
木板	-18807
机密	-18808
条款	-18809
极重	-18810
枝叶	-18811
栅栏	-18812
棱白	-18813
欺侮	-18814
毒虫	-18815
比例	-18816
毛头	-18817
沉迷	-18818
活物	-18819
清凉	-18820
漫游	-18821
灭了	-18822
炎儿	-18823
点数	-18824
物体	-18825
特效	-18826
狂涌	-18827
电蛇	-18828
的强	-18829
相像	-18830
着道	-18831
瞧在	-18832
码字	-18833
破产	-18834
破开	-18835
立足	-18836
紫红	-18837
繁星	-18838
练功	-18839
绷紧	-18840
翻译	-18841
而被	-18842
胃口	-18843
背面	-18844
能用	-18845
腥臭	-18846
自那	-18847
良好	-18848
艺术	-18849
莫要	-18850
营造	-18851
萧灸	-18852
萧炱	-18853
藉此	-18854
蛇信	-18855
蛇瞳	-18856
蛇鳞	-18857
被她	-18858
警方	-18859
词汇	-18860
轻响	-18861
轻移	-18862
这十	-18863
这间	-18864
退路	-18865
酒店	-18866
重生	-18867
金铁	-18868
门缝	-18869
间断	-18870
防卫	-18871
预案	-18872
领地	-18873
额的	-18874
飙射	-18875
餐盘	-18876
骑马	-18877
高价	-18878
高涨	-18879
鬼尊	-18880
魂技	-18881
黄易	-18882
黏稠	-18883
▁下午	-18884
▁之后	-18885
▁他又	-18886
▁只有	-18887
▁唐震	-18888
▁在将	-18889
▁放下	-18890
▁方证	-18891
▁本来	-18892
▁这座	-18893
▁韩枫	-18894
一颗心	-18895
三长老	-18896
不虚传	-18897
不过来	-18898
丢入了	-18899
两侧的	-18900
举一动	-18901
也唯有	-18902
也很难	-18903
了很久	-18904
了身体	-18905
仇松年	-18906
从这些	-18907
他听见	-18908
以一敌	-18909
仪和道	-18910
但也不	-18911
倾向于	-18912
做了次	-18913
僵硬的	-18914
冷静地	-18915
切尔诺	-18916
则日记	-18917
医生的	-18918
却始终	-18919
卷卷轴	-18920
又一层	-18921
句话说	-18922
吞了口	-18923
告辞了	-18924
和妹妹	-18925
哪一个	-18926
唯一能	-18927
因为有	-18928
城市中	-18929
墨巴斯	-18930
天际的	-18931
奥兹尔	-18932
女士们	-18933
好几位	-18934
宝石的	-18935
实在的	-18936
对抗着	-18937
小心的	-18938
小林子	-18939
就像被	-18940
层叠的	-18941
岛屿上	-18942
已经将	-18943
带着点	-18944
当年我	-18945
很高兴	-18946
恐怕他	-18947
恭喜你	-18948
我们要	-18949
我建议	-18950
戴兜帽	-18951
所散发	-18952
打定了	-18953
把玩着	-18954
描述道	-18955
放大的	-18956
整整齐	-18957
方人智	-18958
无力的	-18959
无数的	-18960
无辜者	-18961
是何种	-18962
是必须	-18963
暂时的	-18964
更别说	-18965
有意思	-18966
有时间	-18967
树干上	-18968
武当派	-18969
死去的	-18970
没那么	-18971
活下来	-18972
然后与	-18973
特色的	-18974
环境下	-18975
瑞乔德	-18976
的人员	-18977
的先生	-18978
的光柱	-18979
的天赋	-18980
的小孩	-18981
的山峰	-18982
的差距	-18983
的建筑	-18984
的心思	-18985
的心神	-18986
的手杖	-18987
的技巧	-18988
的狂风	-18989
的符号	-18990
的身上	-18991
的长剑	-18992
直截了	-18993
破坏了	-18994
第一层	-18995
红马甲	-18996
细密的	-18997
聚会里	-18998
脑袋的	-18999
若是传	-19000
若是真	-19001
范围的	-19002
药尊者	-19003
莫修因	-19004
诧异地	-19005
起手来	-19006
轻松地	-19007
这一掌	-19008
远离了	-19009
铜便士	-19010
黄褐色	-19011
黑马甲	-19012
▁他记得	-19013
▁庞大的	-19014
一条街道	-19015
一片安静	-19016
七彩能量	-19017
三年之约	-19018
不仅没有	-19019
不会超过	-19020
不过由于	-19021
也并没有	-19022
也是一个	-19023
也是猛然	-19024
仔细观察	-19025
以他们的	-19026
众人皆是	-19027
众位成员	-19028
先前萧炎	-19029
全神贯注	-19030
六星斗圣	-19031
出手的话	-19032
到了序列	-19033
可当真是	-19034
圆腹钢笔	-19035
坠落而下	-19036
多了一个	-19037
天下英雄	-19038
天灾女王	-19039
天阶功法	-19040
始终都是	-19041
展现出了	-19042
并未理会	-19043
应该不是	-19044
强迫自己	-19045
很快就会	-19046
微微一振	-19047
微微偏头	-19048
拉蒂西亚	-19049
拧动把手	-19050
按照他的	-19051
搓了搓手	-19052
整个世界	-19053
整件事情	-19054
整整齐齐	-19055
斗宗阶别	-19056
斗气纱衣	-19057
最后一步	-19058
望了过来	-19059
武林中的	-19060
毒宗宗主	-19061
淡金色的	-19062
玉瓶之中	-19063
白发男子	-19064
目光盯着	-19065
目光突然	-19066
直接是在	-19067
着萧炎的	-19068
知道一些	-19069
绝对不是	-19070
继续前行	-19071
肯定会被	-19072
能够成功	-19073
脚尖轻点	-19074
舔了舔嘴	-19075
虽然心中	-19076
视线尽头	-19077
让人无法	-19078
说了出来	-19079
越来越强	-19080
转头对着	-19081
还算不错	-19082
这个组织	-19083
逐渐消散	-19084
那个叫做	-19085
那位女士	-19086
都是不敢	-19087
需要注意	-19088
露出一张	-19089
飞行魔兽	-19090
黑色光圈	-19091
黑色锁链	-19092
默然几秒	-19093
▁而克莱恩	-19094
一道细微的	-19095
不同的地方	-19096
什么也没说	-19097
从对方眼中	-19098
从未听说过	-19099
但萧炎却是	-19100
低沉的声音	-19101
便是缓缓的	-19102
克莱恩发现	-19103
其中所蕴含	-19104
具体的情况	-19105
几个闪烁间	-19106
切尔诺贝利	-19107
半个小时后	-19108
唐泰斯先生	-19109
四处扫了扫	-19110
巨人王居所	-19111
干咳了一声	-19112
微微笑了笑	-19113
微皱眉头道	-19114
恐怖的力量	-19115
毫不犹豫的	-19116
炼药师袍服	-19117
环顾一圈道	-19118
白银城首席	-19119
相关的事情	-19120
看上去颇为	-19121
萧炎的手掌	-19122
萧炎的气息	-19123
赫尔莫修因	-19124
辆出租马车	-19125
退后了几步	-19126
都是拥有着	-19127
闪过了一个	-19128
魔女特莉丝	-19129
魔术师小姐	-19130
全自动许愿机	-19131
望着天空上那	-19132
环顾了一圈道	-19133
白银城造物主	-19134
克莱恩轻轻颔首	-19135
变异的太阳圣徽	-19136
啪地打了个响指	-19137
最初那位造物主	-19138
灵教团人造死神	-19139
艾弥留斯利维特	-19140
▁克莱恩点了点头	-19141
,《	-19142
3,	-19143
40	-19144
▁圣	-19145
▁最	-19146
三步	-19147
上演	-19148
东部	-19149
两千	-19150
中止	-19151
之刻	-19152
之至	-19153
云集	-19154
五天	-19155
五彩	-19156
令旗	-19157
似的	-19158
但从	-19159
低于	-19160
佛门	-19161
依言	-19162
侧耳	-19163
便于	-19164
俊美	-19165
做人	-19166
偿还	-19167
公布	-19168
内甲	-19169
写了	-19170
冲上	-19171
出价	-19172
分隔	-19173
利斯	-19174
刺瞎	-19175
前进	-19176
务求	-19177
卜杖	-19178
卡诺	-19179
发射	-19180
口哨	-19181
吹牛	-19182
咽喉	-19183
嘭嘭	-19184
四星	-19185
四月	-19186
四派	-19187
圆圈	-19188
在被	-19189
均是	-19190
境地	-19191
大是	-19192
天之	-19193
天魂	-19194
奔向	-19195
奔雷	-19196
她能	-19197
始至	-19198
威慑	-19199
子嗣	-19200
守在	-19201
定神	-19202
对它	-19203
寺中	-19204
左足	-19205
布偶	-19206
师侄	-19207
并没	-19208
应当	-19209
度的	-19210
弧线	-19211
强敌	-19212
微曲	-19213
必得	-19214
总比	-19215
想让	-19216
意气	-19217
我用	-19218
打架	-19219
执行	-19220
扶着	-19221
抬高	-19222
拧开	-19223
拳脚	-19224
指导	-19225
挥剑	-19226
排队	-19227
效力	-19228
斑白	-19229
斧头	-19230
无敌	-19231
日期	-19232
暴刺	-19233
月华	-19234
有三	-19235
服了	-19236
权势	-19237
构成	-19238
柳苍	-19239
正色	-19240
步子	-19241
死掉	-19242
毒丹	-19243
比划	-19244
比喻	-19245
比武	-19246
气味	-19247
沙丘	-19248
没让	-19249
法案	-19250
浆洗	-19251
深谷	-19252
温婉	-19253
源泉	-19254
滋滋	-19255
漫步	-19256
烈酒	-19257
珊儿	-19258
甜美	-19259
的半	-19260
皮夹	-19261
看上	-19262
着小	-19263
睡床	-19264
矫健	-19265
短发	-19266
确保	-19267
神丹	-19268
站台	-19269
紧要	-19270
红酒	-19271
细密	-19272
经费	-19273
给您	-19274
维护	-19275
缩水	-19276
肆意	-19277
肉身	-19278
肥胖	-19279
腥味	-19280
自豪	-19281
艾略	-19282
荡起	-19283
薄弱	-19284
装着	-19285
褐发	-19286
观点	-19287
视作	-19288
说笑	-19289
账户	-19290
起始	-19291
跨出	-19292
路口	-19293
路易	-19294
路途	-19295
踏进	-19296
轮流	-19297
运动	-19298
逃过	-19299
逼到	-19300
那颗	-19301
酒精	-19302
铁盒	-19303
阻挡	-19304
零零	-19305
青衫	-19306
香料	-19307
ian	-19308
“1”	-19309
▁一阵	-19310
▁毕竟	-19311
▁这片	-19312
一年的	-19313
不可测	-19314
不得已	-19315
不怎么	-19316
两银子	-19317
了几口	-19318
了几圈	-19319
了几遍	-19320
从远处	-19321
他一人	-19322
付出的	-19323
但此刻	-19324
体而出	-19325
你这样	-19326
便是如	-19327
兴奋的	-19328
其手掌	-19329
出来吧	-19330
到极点	-19331
功法的	-19332
加尔加	-19333
包裹住	-19334
即使有	-19335
受了伤	-19336
只能靠	-19337
可依然	-19338
在下方	-19339
在胸前	-19340
多出了	-19341
始至终	-19342
孩子的	-19343
就没有	-19344
巧言者	-19345
帮助下	-19346
帮助你	-19347
引领下	-19348
弥漫出	-19349
必须先	-19350
惊愕的	-19351
惊讶的	-19352
意外地	-19353
我不想	-19354
我们便	-19355
我们去	-19356
我目前	-19357
我看你	-19358
把握住	-19359
报纸和	-19360
描述了	-19361
擦了擦	-19362
无所谓	-19363
明明是	-19364
有必要	-19365
本来想	-19366
杰出的	-19367
殖民地	-19368
浓浓的	-19369
浪费了	-19370
状态中	-19371
狂暴的	-19372
狠手辣	-19373
狠狠地	-19374
的一步	-19375
的两个	-19376
的中央	-19377
的人选	-19378
的信心	-19379
的地带	-19380
的大事	-19381
的天地	-19382
的安静	-19383
的手势	-19384
的提醒	-19385
的攻势	-19386
的本事	-19387
的消失	-19388
的蜡烛	-19389
的金色	-19390
的马车	-19391
的骨灰	-19392
看他们	-19393
看报纸	-19394
看来是	-19395
眺望着	-19396
神奇的	-19397
突然的	-19398
精灵语	-19399
翻海印	-19400
虽然在	-19401
蛮荒决	-19402
认为是	-19403
许久后	-19404
贝齿轻	-19405
转化成	-19406
近距离	-19407
还没死	-19408
这一年	-19409
这已经	-19410
迷糊糊	-19411
那一片	-19412
那里去	-19413
除了那	-19414
隐秘之	-19415
难免会	-19416
面上的	-19417
齐声道	-19418
▁他知道	-19419
▁借助着	-19420
▁她旋即	-19421
▁她没有	-19422
▁当最后	-19423
▁而现在	-19424
▁这家伙	-19425
▁这里的	-19426
一般来说	-19427
三年之前	-19428
中低序列	-19429
也是一笑	-19430
了一阵后	-19431
他们这些	-19432
他的视线	-19433
众位长老	-19434
传来一阵	-19435
低声说道	-19436
低头望着	-19437
便是猛然	-19438
先生那里	-19439
内院长老	-19440
凝重之色	-19441
凭空浮现	-19442
十来分钟	-19443
古族之中	-19444
只要能够	-19445
名不虚传	-19446
回忆起了	-19447
堕落伯爵	-19448
大庭广众	-19449
实力强横	-19450
就是为了	-19451
尸骨教堂	-19452
居然还能	-19453
已经能够	-19454
急速后退	-19455
恐怕都是	-19456
我们已经	-19457
战神教会	-19458
手掌一晃	-19459
手臂之上	-19460
打定主意	-19461
拥有异火	-19462
掌心之中	-19463
放松下来	-19464
旋即脸色	-19465
星陨阁的	-19466
是那样的	-19467
曾经说过	-19468
果然不是	-19469
森罗鬼尊	-19470
毁灭力量	-19471
气旋之内	-19472
炼制躯体	-19473
然后化为	-19474
犹如一个	-19475
略微沉寂	-19476
白衣男子	-19477
眼睛微眯	-19478
神秘世界	-19479
紧跟而上	-19480
红色液体	-19481
绝大多数	-19482
老生队伍	-19483
苏醒过来	-19484
落了下来	-19485
袖袍轻挥	-19486
身份证明	-19487
身体犹如	-19488
轻描淡写	-19489
这些都是	-19490
这是我们	-19491
迷迷糊糊	-19492
透明蠕虫	-19493
阴冷的道	-19494
阴晴不定	-19495
面前这个	-19496
黄泉尊者	-19497
黄褐色的	-19498
黎明骑士	-19499
▁不过虽说	-19500
一股淡淡的	-19501
一道道人影	-19502
也是微微一	-19503
了下自己的	-19504
克莱恩正要	-19505
到贝克兰德	-19506
半只脚踏入	-19507
大天造化掌	-19508
将目光转向	-19509
恐怖的温度	-19510
惊骇目光中	-19511
想到了一个	-19512
想到了什么	-19513
描述了一遍	-19514
放松了下来	-19515
斗宗强者的	-19516
斟酌着问道	-19517
是什么意思	-19518
暴射而来的	-19519
极快的速度	-19520
浏览了一遍	-19521
的青铜长桌	-19522
类似的情况	-19523
脸色苍白的	-19524
萧炎自然是	-19525
轻声喃喃道	-19526
这个过程中	-19527
银色的单词	-19528
闭了闭眼睛	-19529
随时准备着	-19530
雄浑的斗气	-19531
他自然是知道	-19532
化为一道黑影	-19533
声音刚刚落下	-19534
真正意义上的	-19535
简单来说就是	-19536
萧炎眼眸微眯	-19537
乌黯魔狼科塔尔	-19538
出了一个又一个	-19539
满意的点了点头	-19540
萧炎苦笑了一声	-19541
萧炎深吸了一口气	-19542
8.	-19543
▁a	-19544
▁乓	-19545
▁瞧	-19546
▁谁	-19547
一尺	-19548
一望	-19549
不相	-19550
不紊	-19551
严狮	-19552
丧命	-19553
为她	-19554
之花	-19555
之阶	-19556
九转	-19557
争吵	-19558
仰起	-19559
价钱	-19560
但都	-19561
何人	-19562
侧脸	-19563
债务	-19564
傅岩	-19565
全副	-19566
养伤	-19567
冰元	-19568
冰符	-19569
冰镜	-19570
凶恶	-19571
别怪	-19572
前排	-19573
剔除	-19574
双膝	-19575
可想	-19576
可要	-19577
右拳	-19578
吃得	-19579
吱吱	-19580
啊对	-19581
囊括	-19582
四皇	-19583
图形	-19584
坦语	-19585
垂体	-19586
埋下	-19587
多管	-19588
头痛	-19589
奇宝	-19590
女童	-19591
如在	-19592
委婉	-19593
守恒	-19594
实践	-19595
害者	-19596
对轰	-19597
小楼	-19598
少将	-19599
就跑	-19600
尽早	-19601
屋子	-19602
巨坑	-19603
干燥	-19604
并论	-19605
建造	-19606
开阔	-19607
强芒	-19608
往内	-19609
心愿	-19610
怀抱	-19611
性感	-19612
惊哗	-19613
手术	-19614
执着	-19615
报箱	-19616
握拳	-19617
支援	-19618
收尾	-19619
改造	-19620
斯文	-19621
新人	-19622
有气	-19623
望来	-19624
杀伤	-19625
杂乱	-19626
杂活	-19627
柳家	-19628
格格	-19629
正想	-19630
此起	-19631
步行	-19632
每人	-19633
毒师	-19634
气血	-19635
油彩	-19636
泰尔	-19637
深有	-19638
深藏	-19639
火石	-19640
焦躁	-19641
爱的	-19642
爽快	-19643
玄妙	-19644
玉牌	-19645
玩具	-19646
用手	-19647
畅销	-19648
百多	-19649
的后	-19650
的吧	-19651
相提	-19652
碎尸	-19653
碎的	-19654
祂在	-19655
移向	-19656
等了	-19657
等他	-19658
糨糊	-19659
索纳	-19660
纪念	-19661
综合	-19662
置于	-19663
翌日	-19664
胆量	-19665
自大	-19666
至高	-19667
草棚	-19668
莞尔	-19669
葫芦	-19670
虫豸	-19671
蜈蚣	-19672
血污	-19673
行下	-19674
被困	-19675
被打	-19676
要你	-19677
请了	-19678
请您	-19679
[...]
